<unk>	0
<s>	0
</s>	0
▁e1▁	0
▁e2▁	0
▁e3▁	0
▁e4▁	0
▁e5▁	0
▁e6▁	0
▁e7▁	0
,	-2.96428
▁the	-3.20355
.	-3.41999
s	-3.68211
▁and	-3.79742
▁of	-3.8184
▁to	-3.9342
▁a	-4.07844
▁in	-4.41061
'	-4.54483
▁was	-4.61346
▁I	-4.73498
▁that	-4.76625
▁he	-4.80191
▁"	-4.89253
▁it	-4.90196
▁his	-5.00333
▁had	-5.14404
ed	-5.14726
▁with	-5.20423
▁for	-5.20524
ing	-5.24497
;	-5.25951
t	-5.26259
▁you	-5.28735
▁as	-5.32223
▁is	-5.37486
▁be	-5.4146
▁not	-5.43725
▁her	-5.44583
▁on	-5.51021
▁at	-5.56013
d	-5.60057
▁him	-5.63512
"	-5.65168
ly	-5.67628
▁she	-5.68678
."	-5.69476
▁but	-5.7626
▁have	-5.77541
▁by	-5.77609
▁were	-5.779
▁	-5.78015
▁all	-5.79411
▁which	-5.85146
▁me	-5.85147
n	-5.86809
▁they	-5.87074
▁my	-5.91449
▁from	-5.92926
▁this	-5.93746
I	-5.96385
▁so	-5.96936
▁said	-5.98399
,"	-5.98881
▁one	-6.00514
▁would	-6.10985
▁or	-6.11334
▁an	-6.13224
▁them	-6.17632
The	-6.19483
e	-6.20935
▁their	-6.21038
▁no	-6.21345
▁are	-6.2347
▁out	-6.24614
▁there	-6.25116
▁been	-6.28552
y	-6.29849
▁we	-6.29886
▁The	-6.31192
!	-6.33828
▁up	-6.36208
?"	-6.37988
er	-6.37989
▁who	-6.40592
▁if	-6.41645
▁when	-6.45295
▁what	-6.45839
m	-6.46239
?	-6.47611
▁do	-6.48224
▁man	-6.49205
▁more	-6.52096
▁He	-6.52179
▁could	-6.52952
▁into	-6.54396
▁will	-6.57632
re	-6.62922
▁like	-6.65568
▁did	-6.66101
▁time	-6.68079
▁about	-6.69891
▁little	-6.70257
:	-6.73649
!"	-6.77023
▁your	-6.77047
r	-6.77783
▁some	-6.77997
ll	-6.78301
▁than	-6.78479
▁can	-6.79926
▁And	-6.80545
▁over	-6.81122
▁very	-6.84105
▁upon	-6.84296
es	-6.84446
▁now	-6.85433
He	-6.86276
▁other	-6.86376
▁'	-6.86617
a	-6.87464
▁only	-6.87545
▁made	-6.87813
▁see	-6.88178
in	-6.88537
▁any	-6.88627
▁know	-6.88682
p	-6.8957
—	-6.90664
▁down	-6.91459
▁has	-6.92372
It	-6.94216
▁then	-6.96362
al	-6.98334
▁came	-6.98642
▁should	-6.99629
▁good	-6.99727
▁before	-7.01487
c	-7.02574
▁go	-7.02616
_	-7.03036
▁two	-7.03036
▁day	-7.04129
▁come	-7.05455
▁It	-7.05653
▁great	-7.06828
▁never	-7.06829
▁men	-7.08197
▁must	-7.09116
▁old	-7.10405
▁_	-7.10436
▁But	-7.10439
▁us	-7.10789
▁way	-7.11431
▁long	-7.12449
A	-7.12622
▁back	-7.13832
▁much	-7.15144
▁again	-7.1548
▁our	-7.15804
But	-7.15983
▁such	-7.16512
▁went	-7.17902
▁after	-7.18265
▁where	-7.18305
ve	-7.20051
th	-7.20204
▁A	-7.20638
▁say	-7.21853
▁himself	-7.24186
▁might	-7.24906
And	-7.25917
▁first	-7.25924
▁own	-7.27563
▁its	-7.27772
▁too	-7.28137
▁well	-7.28439
le	-7.29451
▁may	-7.30224
▁these	-7.30427
▁think	-7.30547
▁make	-7.31547
▁un	-7.3228
▁through	-7.32604
l	-7.32791
▁life	-7.32819
▁how	-7.34653
▁thought	-7.34681
u	-7.34777
▁away	-7.35035
▁eyes	-7.36719
▁just	-7.37184
g	-7.38043
▁*	-7.38379
▁here	-7.38838
or	-7.39
ness	-7.39655
▁even	-7.40223
▁hand	-7.41151
▁still	-7.41352
▁de	-7.42478
▁night	-7.4314
▁Mr	-7.4314
▁She	-7.44139
st	-7.45084
▁many	-7.45149
▁without	-7.45229
▁last	-7.45419
b	-7.45495
▁most	-7.46361
▁head	-7.46512
▁shall	-7.46638
You	-7.47261
▁people	-7.47494
▁place	-7.47839
▁take	-7.48275
o	-7.48607
▁am	-7.49439
▁right	-7.49651
▁every	-7.5085
it	-7.50975
on	-7.51267
▁under	-7.51327
en	-7.51568
▁house	-7.52059
▁saw	-7.52301
▁being	-7.52694
ic	-7.52776
▁get	-7.52936
▁re	-7.53687
▁found	-7.54561
▁while	-7.54632
▁off	-7.55116
▁put	-7.55403
▁those	-7.56385
ar	-7.57453
▁don	-7.57596
▁face	-7.57743
▁ever	-7.58171
▁nothing	-7.59703
f	-7.60247
▁S	-7.60247
▁thing	-7.61314
ity	-7.61489
S	-7.61734
In	-7.62199
▁another	-7.62361
ion	-7.62445
▁tell	-7.63077
el	-7.66149
▁took	-7.66682
▁room	-7.66855
▁though	-7.66962
▁heart	-7.66989
ers	-7.67449
il	-7.67472
▁work	-7.67492
▁got	-7.67639
▁seemed	-7.67686
▁same	-7.68196
▁things	-7.68431
▁always	-7.68457
ri	-7.68694
ro	-7.68721
▁far	-7.68971
▁looked	-7.69367
▁three	-7.69819
ch	-7.70542
▁father	-7.70564
▁home	-7.70698
est	-7.71968
▁yet	-7.73318
▁look	-7.74071
▁something	-7.74239
She	-7.7429
▁left	-7.75603
▁world	-7.76062
▁against	-7.763
▁love	-7.76642
i	-7.76935
*	-7.76956
ur	-7.77848
▁once	-7.78214
▁young	-7.78886
▁new	-7.79025
▁asked	-7.7906
ation	-7.79249
an	-7.79311
What	-7.79599
▁knew	-7.80019
▁give	-7.80714
▁part	-7.81168
▁s	-7.81914
▁let	-7.82706
▁want	-7.82929
▁years	-7.83271
▁In	-7.83376
There	-7.83431
▁water	-7.8372
▁mind	-7.84094
▁going	-7.84359
▁heard	-7.8455
▁door	-7.8477
▁God	-7.84958
▁moment	-7.85235
▁(	-7.86436
▁done	-7.88048
▁They	-7.8845
h	-7.8855
able	-7.8864
▁half	-7.88719
▁B	-7.88729
▁end	-7.88896
▁g	-7.89017
▁because	-7.89432
▁You	-7.89972
▁light	-7.90584
▁woman	-7.90596
w	-7.90661
▁enough	-7.90718
They	-7.91253
▁seen	-7.91929
▁told	-7.92147
▁side	-7.92226
li	-7.92391
▁find	-7.92448
us	-7.93302
▁whole	-7.93997
▁o	-7.94186
▁also	-7.94544
This	-7.94662
▁began	-7.95074
▁thou	-7.95358
man	-7.95448
▁O	-7.96101
▁few	-7.96184
▁C	-7.96909
▁course	-7.97319
▁better	-7.97807
at	-7.98071
ra	-7.98597
▁each	-7.98608
la	-7.98686
▁quite	-7.98707
▁between	-7.98783
▁P	-7.98808
E	-7.98897
and	-7.98937
▁turned	-7.99051
▁hands	-7.99444
Then	-7.99676
▁both	-8.00087
is	-8.00918
as	-8.01289
No	-8.01912
We	-8.02068
O	-8.02384
▁Mrs	-8.02435
k	-8.03007
to	-8.03125
ive	-8.03623
▁fire	-8.04316
▁almost	-8.04388
ter	-8.04956
▁stood	-8.05384
▁gave	-8.05536
▁set	-8.05897
▁called	-8.06079
▁felt	-8.0615
▁anything	-8.0626
ir	-8.06477
▁There	-8.07449
ce	-8.08315
less	-8.08395
▁voice	-8.08693
T	-8.09134
▁M	-8.09193
ted	-8.09702
▁country	-8.0983
)	-8.09959
▁For	-8.10112
lo	-8.10272
▁white	-8.10426
se	-8.10533
▁soon	-8.10674
ate	-8.10866
▁full	-8.11101
▁kind	-8.11172
▁name	-8.11401
ul	-8.11662
ver	-8.11763
ling	-8.11942
▁friend	-8.13235
▁matter	-8.13239
▁does	-8.13389
▁c	-8.13439
ry	-8.13803
ent	-8.13828
▁small	-8.13935
▁mother	-8.14057
▁keep	-8.14181
▁cried	-8.14574
et	-8.15015
▁That	-8.15781
That	-8.16009
When	-8.16113
▁days	-8.16264
▁toward	-8.16384
▁until	-8.17387
ful	-8.17588
▁however	-8.18013
▁children	-8.18088
ting	-8.18338
▁best	-8.18478
▁We	-8.191
▁feet	-8.19452
ment	-8.195
▁girl	-8.19561
ck	-8.19736
v	-8.19841
▁sat	-8.19971
▁land	-8.20492
▁fact	-8.20564
▁help	-8.20962
ne	-8.21072
▁G	-8.21197
led	-8.21237
▁morning	-8.21338
If	-8.21442
▁thy	-8.21522
▁words	-8.21527
▁word	-8.21539
▁war	-8.21644
z	-8.21753
▁brought	-8.2218
So	-8.22314
▁To	-8.22947
▁F	-8.22955
▁lay	-8.23207
▁together	-8.23259
▁till	-8.23766
▁whom	-8.23943
▁myself	-8.24149
▁gone	-8.24187
▁hundred	-8.24811
▁open	-8.25595
Oh	-8.25681
▁round	-8.26005
▁large	-8.26159
em	-8.26371
▁Then	-8.26505
▁hear	-8.26694
▁poor	-8.27012
▁less	-8.27265
de	-8.27634
F	-8.27636
ol	-8.27685
▁p	-8.27956
▁having	-8.28111
▁rather	-8.28474
▁E	-8.28649
▁What	-8.28674
▁nor	-8.28863
te	-8.2967
▁looking	-8.29798
▁taken	-8.30196
▁con	-8.30388
▁death	-8.30474
Yes	-8.31088
P	-8.31196
▁ten	-8.31357
M	-8.31646
▁rest	-8.31738
▁wife	-8.31836
▁replied	-8.32085
▁next	-8.32331
▁four	-8.32382
▁along	-8.32404
ies	-8.32571
▁dead	-8.32783
▁dear	-8.32824
N	-8.32911
For	-8.32968
▁child	-8.33018
▁hour	-8.33267
▁His	-8.33269
C	-8.33651
▁money	-8.33844
D	-8.3393
the	-8.33938
▁high	-8.34229
ance	-8.34417
▁among	-8.34536
Well	-8.34647
▁five	-8.35615
am	-8.35674
▁since	-8.35774
ci	-8.35825
▁mean	-8.35868
▁T	-8.36075
▁year	-8.36165
▁really	-8.36216
B	-8.36508
▁live	-8.36821
id	-8.36875
ous	-8.37197
▁black	-8.3733
▁need	-8.37549
▁dis	-8.37819
▁believe	-8.38215
▁hope	-8.38592
▁themselves	-8.3865
▁body	-8.38917
▁fell	-8.39303
▁ground	-8.39341
▁hard	-8.39482
▁reason	-8.3975
▁dark	-8.39797
ig	-8.39916
▁This	-8.3995
R	-8.40022
▁call	-8.4009
▁behind	-8.40261
▁sure	-8.40596
▁King	-8.40973
▁point	-8.41296
▁sea	-8.41331
▁passed	-8.41587
▁near	-8.41625
▁So	-8.4173
ant	-8.42075
un	-8.42296
▁case	-8.42629
▁family	-8.42656
▁W	-8.43005
▁speak	-8.43387
▁herself	-8.4355
▁st	-8.43588
As	-8.43813
▁why	-8.44404
ad	-8.44596
▁boy	-8.44818
▁question	-8.44902
ine	-8.45046
ty	-8.45351
▁air	-8.45554
▁alone	-8.45615
he	-8.45691
▁son	-8.45751
▁If	-8.4583
To	-8.45862
▁true	-8.45967
▁turn	-8.46266
▁often	-8.4648
age	-8.46848
▁co	-8.46969
▁f	-8.4698
▁line	-8.4731
At	-8.48393
▁held	-8.4856
▁least	-8.48946
▁state	-8.49115
▁Tom	-8.49187
▁sent	-8.4922
▁bed	-8.49402
▁hair	-8.49411
▁present	-8.4959
▁ask	-8.49934
ish	-8.49959
▁power	-8.50239
▁feel	-8.50508
▁fear	-8.50732
▁red	-8.51014
▁road	-8.51116
▁women	-8.51261
▁care	-8.51505
▁When	-8.51548
▁kept	-8.51713
▁d	-8.51992
ie	-8.52435
▁above	-8.52628
▁use	-8.52695
▁perhaps	-8.52711
▁given	-8.52976
▁b	-8.53117
▁sort	-8.53189
▁leave	-8.53231
▁sun	-8.53593
▁certain	-8.53751
▁already	-8.54093
▁thee	-8.54355
]	-8.54872
▁strong	-8.54911
ton	-8.55169
▁around	-8.55757
▁free	-8.55825
▁e	-8.55844
▁whose	-8.55955
▁order	-8.56056
▁else	-8.56224
▁answered	-8.5637
▁lost	-8.56486
▁short	-8.56588
▁become	-8.56699
▁As	-8.56724
▁either	-8.56849
▁general	-8.57067
▁table	-8.57129
Now	-8.57411
▁known	-8.57559
▁city	-8.57563
▁brother	-8.57973
men	-8.58186
▁everything	-8.58228
▁town	-8.58287
▁beautiful	-8.58296
be	-8.58401
▁coming	-8.58566
▁en	-8.58674
▁St	-8.58844
▁close	-8.59048
▁indeed	-8.5912
um	-8.5928
2	-8.59303
▁won	-8.59341
▁big	-8.59459
ut	-8.59599
▁second	-8.59601
▁fine	-8.59723
▁others	-8.59758
▁cold	-8.59784
me	-8.59799
▁master	-8.59853
▁river	-8.59858
▁answer	-8.5993
▁ex	-8.60006
▁wind	-8.60033
▁sense	-8.6026
▁within	-8.60286
ru	-8.60346
ma	-8.60451
ated	-8.60497
▁law	-8.60559
▁became	-8.60923
▁cannot	-8.6095
▁rose	-8.61134
mb	-8.61738
ure	-8.61823
▁sight	-8.61993
▁used	-8.62075
▁run	-8.62152
Why	-8.62211
How	-8.62224
ist	-8.62343
▁thousand	-8.6241
▁itself	-8.62638
▁king	-8.63126
▁arms	-8.63681
▁doubt	-8.63747
ke	-8.63974
▁deep	-8.63994
▁D	-8.64041
▁sound	-8.64077
▁met	-8.64125
▁horse	-8.64136
red	-8.64237
▁read	-8.64524
▁making	-8.6474
▁human	-8.64795
▁window	-8.64957
ence	-8.6544
ary	-8.65455
▁wish	-8.65563
▁per	-8.65637
▁soul	-8.65789
My	-8.65814
rs	-8.66032
▁times	-8.66515
▁talk	-8.66527
▁ran	-8.66543
ff	-8.6657
▁person	-8.66856
▁clear	-8.66933
▁manner	-8.67178
▁front	-8.67269
ow	-8.67282
im	-8.67713
ta	-8.67834
▁able	-8.67986
▁business	-8.68168
na	-8.68362
▁French	-8.68433
during	-8.68642
▁friends	-8.68805
▁De	-8.68958
▁six	-8.69054
▁across	-8.6906
▁several	-8.69152
ac	-8.69476
▁V	-8.69576
▁says	-8.69668
vi	-8.69758
▁No	-8.69786
▁wanted	-8.6979
ard	-8.69816
▁ye	-8.70034
▁English	-8.7004
▁show	-8.70128
▁bring	-8.70468
▁whether	-8.70516
▁thus	-8.7054
▁reached	-8.70629
His	-8.70837
▁hold	-8.70988
L	-8.71818
▁returned	-8.71852
no	-8.72049
All	-8.72431
▁twenty	-8.72644
▁blood	-8.72737
▁low	-8.7277
▁followed	-8.72842
▁imp	-8.7296
▁form	-8.73078
▁Jurgis	-8.73641
▁At	-8.73649
▁evening	-8.73771
On	-8.73805
▁t	-8.73991
▁ought	-8.74574
▁number	-8.74731
▁sleep	-8.75062
▁Miss	-8.75248
▁pay	-8.7544
H	-8.75461
▁glad	-8.75779
▁understand	-8.75938
co	-8.76099
▁idea	-8.76398
▁fellow	-8.76433
▁art	-8.7667
▁pretty	-8.76748
▁eye	-8.76813
▁wild	-8.7685
▁real	-8.76872
▁chance	-8.76948
▁pro	-8.76953
▁Lord	-8.76969
▁cut	-8.77365
▁play	-8.77419
▁strange	-8.77563
we	-8.77751
▁possible	-8.78022
▁nature	-8.78022
▁sir	-8.78459
▁party	-8.78512
ious	-8.78811
tic	-8.78893
▁stand	-8.78967
▁foot	-8.79023
ward	-8.79133
▁ready	-8.79225
▁England	-8.79513
▁truth	-8.79613
▁deal	-8.79682
▁hours	-8.79859
▁arm	-8.79953
▁continued	-8.8
▁earth	-8.80203
ha	-8.80292
ism	-8.80495
▁cause	-8.80686
8	-8.80888
▁THE	-8.80921
▁My	-8.81047
▁Maggie	-8.81078
▁government	-8.81136
▁past	-8.81427
▁spoke	-8.81562
▁blue	-8.81741
▁bear	-8.81794
▁act	-8.81805
▁H	-8.81818
▁John	-8.81848
▁effect	-8.82222
▁longer	-8.82559
▁car	-8.82814
pe	-8.82866
▁bright	-8.83086
our	-8.83182
▁ba	-8.83214
▁die	-8.83282
ia	-8.83544
G	-8.83561
▁ha	-8.83633
▁means	-8.83657
▁pass	-8.83724
▁different	-8.83814
▁States	-8.83825
▁return	-8.83872
▁Sir	-8.84058
▁seem	-8.84344
▁force	-8.84349
▁lady	-8.84703
▁saying	-8.84771
▁age	-8.84874
▁change	-8.85021
bb	-8.85281
▁ill	-8.85388
▁fall	-8.85458
▁army	-8.85478
▁General	-8.85632
but	-8.8585
ever	-8.85927
▁therefore	-8.86138
ge	-8.86141
▁carried	-8.86245
▁mine	-8.86318
W	-8.86552
▁tea	-8.86945
▁bad	-8.87044
ca	-8.87337
▁po	-8.8771
▁sp	-8.87744
U	-8.87967
▁pre	-8.88001
▁mo	-8.88049
▁except	-8.881
▁bit	-8.88114
▁tried	-8.88366
▁top	-8.88383
▁suddenly	-8.88417
▁interest	-8.88434
lu	-8.88507
▁common	-8.88525
▁couldn	-8.88765
▁remember	-8.89266
ber	-8.8939
4	-8.89523
hi	-8.89548
▁trouble	-8.89696
▁enemy	-8.89733
qui	-8.89856
▁later	-8.90009
if	-8.9026
▁Duane	-8.90446
▁forward	-8.90559
▁Do	-8.90657
x	-8.9068
▁happy	-8.90848
3	-8.91114
per	-8.9138
ring	-8.91399
▁fair	-8.9148
▁opened	-8.91507
po	-8.9154
▁sweet	-8.91575
▁public	-8.91863
▁position	-8.9201
di	-8.92083
5	-8.92113
way	-8.92516
▁K	-8.92605
▁miles	-8.92673
▁spirit	-8.92925
▁Be	-8.93259
ud	-8.93277
▁suppose	-8.93322
▁husband	-8.93347
▁sister	-8.93363
▁letter	-8.935
▁All	-8.93814
▁view	-8.93927
mo	-8.94031
▁L	-8.94163
▁wide	-8.94172
for	-8.9494
tion	-8.94972
ally	-8.95038
Do	-8.95271
▁green	-8.95439
7	-8.95519
▁j	-8.95543
▁school	-8.95674
▁story	-8.95687
▁ago	-8.95827
que	-8.95911
land	-8.95913
▁taking	-8.96033
▁none	-8.96114
ily	-8.96192
1	-8.96216
▁ship	-8.96531
pp	-8.96853
▁command	-8.96991
▁Prince	-8.96997
▁laid	-8.97121
▁bar	-8.97203
ho	-8.97213
▁ho	-8.97302
One	-8.97468
▁Mary	-8.97563
▁doing	-8.97722
▁appeared	-8.97754
▁happened	-8.9788
▁fl	-8.97907
ened	-8.97923
sh	-8.98082
▁Her	-8.98175
▁seems	-8.9829
ical	-8.98613
▁mouth	-8.98904
mon	-8.98918
▁li	-8.99144
▁living	-8.99269
▁minutes	-8.99301
▁youth	-8.99402
les	-8.99646
ian	-8.99686
▁stay	-8.99737
▁added	-8.99984
▁feeling	-9.0008
▁daughter	-9.0025
▁result	-9.0025
▁further	-9.00253
?'	-9.00407
▁silence	-9.00497
▁led	-9.00538
▁meet	-9.00554
▁la	-9.00616
ot	-9.00974
▁smile	-9.0112
▁forth	-9.01123
▁afraid	-9.01218
▁floor	-9.01241
▁purpose	-9.01241
▁late	-9.01248
▁New	-9.01258
▁chair	-9.01262
▁entered	-9.01271
▁beyond	-9.01365
▁service	-9.01365
▁battle	-9.01494
▁warm	-9.01519
▁Ma	-9.01773
▁object	-9.01796
▁18	-9.01805
▁heavy	-9.02367
▁sometimes	-9.02368
▁dream	-9.02496
▁tree	-9.0253
min	-9.02801
Not	-9.02833
▁nearly	-9.02869
nd	-9.03294
▁eat	-9.03658
▁sta	-9.03725
▁wood	-9.03769
▁Of	-9.03825
▁figure	-9.03891
gg	-9.04024
that	-9.04208
son	-9.04325
ating	-9.0433
▁fresh	-9.04659
▁fight	-9.04669
▁train	-9.04794
ng	-9.04862
▁lips	-9.04874
▁character	-9.04914
▁secret	-9.05305
▁Ba	-9.05563
▁stopped	-9.05702
Of	-9.0583
▁fast	-9.05852
▁Re	-9.05872
9	-9.05976
▁lived	-9.0604
6	-9.06423
After	-9.06431
▁slowly	-9.06549
▁book	-9.06927
nce	-9.07146
▁wrong	-9.07401
▁peace	-9.07602
▁save	-9.07792
▁plain	-9.0799
▁sit	-9.08235
▁N	-9.0827
▁An	-9.08276
▁cry	-9.08281
▁moved	-9.08367
▁self	-9.08526
▁rich	-9.08796
▁watch	-9.08846
▁pleasure	-9.08867
▁office	-9.08891
▁early	-9.09048
▁started	-9.09414
▁garden	-9.09682
ten	-9.09806
▁necessary	-9.09947
▁soft	-9.09961
▁di	-9.09972
▁chief	-9.1056
▁Dutch	-9.10629
▁yourself	-9.10934
ade	-9.10975
_,	-9.11043
▁eight	-9.11058
▁buffalo	-9.11065
▁Ho	-9.1113
eth	-9.11314
ial	-9.11401
▁street	-9.11446
▁straight	-9.11452
▁Smith	-9.1163
▁How	-9.11781
▁17	-9.11847
▁gold	-9.11904
▁drew	-9.12144
vo	-9.1232
▁received	-9.12352
ned	-9.12395
▁bound	-9.12438
▁Dr	-9.12445
▁Bibbs	-9.12477
▁caught	-9.12566
▁follow	-9.12671
▁boys	-9.12722
▁try	-9.12845
ak	-9.12852
▁neither	-9.1298
▁breath	-9.12986
▁desire	-9.13034
With	-9.13089
▁ta	-9.13343
▁walked	-9.13408
——	-9.13415
▁getting	-9.13416
you	-9.13419
go	-9.13657
▁wait	-9.1374
nt	-9.13767
▁scarce	-9.14117
▁wall	-9.14227
▁snow	-9.14256
▁thinking	-9.14263
▁subject	-9.14323
ay	-9.14405
▁walk	-9.14428
▁Now	-9.14457
▁trees	-9.14497
lt	-9.1468
do	-9.1478
ship	-9.14894
▁following	-9.14921
▁President	-9.14959
▁wonder	-9.15065
▁send	-9.15199
▁account	-9.15245
▁joy	-9.15275
▁blow	-9.15399
▁outside	-9.15561
▁single	-9.15907
▁faith	-9.16061
▁loved	-9.16247
▁corner	-9.16274
▁visit	-9.16302
ap	-9.16381
▁hall	-9.16553
▁R	-9.16717
▁th	-9.16856
▁State	-9.16879
ang	-9.17106
▁sc	-9.17133
▁died	-9.17395
▁laughed	-9.17448
▁silent	-9.17562
▁week	-9.17867
▁r	-9.17988
▁On	-9.18024
ight	-9.18068
▁wise	-9.18088
▁occasion	-9.18486
▁grew	-9.18742
iv	-9.18818
con	-9.18894
va	-9.18949
▁action	-9.19035
▁Lincoln	-9.19062
▁lie	-9.19177
▁seven	-9.19326
▁hot	-9.19583
▁plan	-9.19606
▁William	-9.19684
▁killed	-9.19869
▁waiting	-9.19914
▁easy	-9.20085
der	-9.20113
▁boat	-9.20125
▁quiet	-9.20194
▁respect	-9.207
▁pain	-9.20716
▁Al	-9.20735
ments	-9.20771
▁natural	-9.208
▁meant	-9.2101
▁begin	-9.21058
▁danger	-9.21119
▁post	-9.21122
▁raised	-9.21133
▁distance	-9.21142
▁trust	-9.21181
▁village	-9.21294
▁important	-9.21297
▁captain	-9.213
▁direction	-9.21662
▁quickly	-9.21708
ster	-9.21896
▁works	-9.21942
▁standing	-9.22095
By	-9.22492
▁attention	-9.22518
ph	-9.22801
▁camp	-9.22983
▁field	-9.23059
▁presence	-9.23137
▁summer	-9.2314
▁opinion	-9.23291
▁rain	-9.23302
one	-9.23335
▁stone	-9.23535
▁months	-9.23607
▁neck	-9.23613
▁dog	-9.23703
▁Holland	-9.23914
K	-9.24036
▁afternoon	-9.2407
▁struck	-9.24383
▁please	-9.24496
▁minute	-9.245
▁sky	-9.24555
▁stop	-9.24683
▁beginning	-9.24707
▁evil	-9.24715
by	-9.2472
▁al	-9.24973
▁filled	-9.25194
▁certainly	-9.25235
▁Ar	-9.25453
▁write	-9.25535
ities	-9.25591
den	-9.25675
▁showed	-9.25691
ny	-9.26004
▁fish	-9.26041
ub	-9.26125
▁tone	-9.26221
▁grass	-9.26284
▁carry	-9.26287
ex	-9.26305
▁m	-9.26352
so	-9.2647
▁covered	-9.26475
ise	-9.26681
ors	-9.26732
▁hat	-9.26915
bo	-9.27035
Y	-9.27118
▁winter	-9.27261
▁kill	-9.27283
side	-9.27414
▁grow	-9.27495
ice	-9.27502
[	-9.27586
▁immediately	-9.27697
▁happen	-9.27808
▁lo	-9.27983
▁step	-9.28031
all	-9.28065
▁move	-9.28441
▁Kent	-9.28473
▁With	-9.28518
▁food	-9.28549
▁France	-9.28569
▁broke	-9.28593
▁J	-9.28615
0	-9.28736
▁break	-9.28842
▁rock	-9.28897
▁thick	-9.28952
▁Le	-9.29063
▁attack	-9.29123
ite	-9.2913
ile	-9.29309
▁impossible	-9.29368
▁broken	-9.29487
▁paper	-9.29538
▁Ha	-9.29633
▁trans	-9.29635
▁labor	-9.29647
▁sudden	-9.29688
▁uncle	-9.29732
pa	-9.29831
ni	-9.29835
oo	-9.29837
ions	-9.29886
▁grave	-9.30068
▁sitting	-9.30069
▁dinner	-9.30198
▁Tulliver	-9.30362
▁pleasant	-9.30364
▁dress	-9.30445
▁exclaimed	-9.30863
▁glass	-9.31031
▁hardly	-9.31044
▁north	-9.3119
▁particular	-9.31192
▁storm	-9.31199
▁learn	-9.31277
▁placed	-9.31289
▁horses	-9.3136
▁stranger	-9.31401
aw	-9.31553
▁hath	-9.31559
▁court	-9.31598
▁le	-9.31615
▁sword	-9.31704
▁length	-9.31872
▁nice	-9.31889
▁piece	-9.3192
▁probably	-9.32211
▁quo	-9.32403
▁strength	-9.32533
▁expect	-9.32641
▁attempt	-9.32657
▁gate	-9.32804
▁sin	-9.32878
▁honor	-9.32892
▁bank	-9.32903
▁spring	-9.32913
▁greater	-9.3314
Here	-9.33228
▁wi	-9.33328
▁One	-9.33336
▁hill	-9.33386
▁remained	-9.33724
▁individual	-9.33922
▁cap	-9.33931
▁isn	-9.34034
▁brown	-9.3405
▁American	-9.34055
▁Or	-9.34096
▁ra	-9.34163
▁lot	-9.34169
▁Fu	-9.34324
▁pa	-9.34325
▁bo	-9.34442
....	-9.34502
▁forget	-9.34621
▁box	-9.34627
▁Peterkin	-9.34793
▁Sheridan	-9.3483
end	-9.34879
▁forest	-9.34881
An	-9.34886
j	-9.349
▁wonderful	-9.34915
▁instant	-9.34972
▁speech	-9.35137
▁third	-9.35137
ations	-9.35247
▁movement	-9.35289
ld	-9.35424
Don	-9.35521
▁beside	-9.35572
▁music	-9.35618
wa	-9.35676
▁trying	-9.35796
▁[	-9.35822
▁pocket	-9.36014
ft	-9.36162
▁touch	-9.36199
▁pack	-9.36591
▁easily	-9.36722
▁group	-9.36722
▁vi	-9.36807
▁Bo	-9.36836
Let	-9.36849
▁reach	-9.37092
▁running	-9.37098
ound	-9.37153
▁success	-9.37213
▁hole	-9.37239
▁doctor	-9.37255
▁laugh	-9.37384
▁personal	-9.37428
▁company	-9.37434
▁written	-9.37437
▁La	-9.37546
▁Why	-9.37569
▁noble	-9.37831
▁Me	-9.37899
▁class	-9.38039
▁measure	-9.38152
▁whatever	-9.3824
up	-9.38264
▁smoke	-9.38332
▁special	-9.38693
▁simply	-9.38874
dy	-9.39144
,—	-9.39155
▁shut	-9.39177
▁pale	-9.39545
▁sh	-9.39778
▁shot	-9.39798
▁OF	-9.39892
▁ain	-9.39943
▁tears	-9.40191
of	-9.40198
▁slave	-9.40205
▁knowledge	-9.40336
▁middle	-9.40338
▁wished	-9.40449
▁beauty	-9.4052
▁Torn	-9.40534
▁expected	-9.40589
▁safe	-9.40647
▁experience	-9.40703
▁entirely	-9.4071
▁drink	-9.40739
▁mere	-9.40763
▁usual	-9.4077
▁fashion	-9.40889
▁skin	-9.40928
ti	-9.41153
▁knows	-9.41234
▁difficult	-9.41238
ped	-9.41347
These	-9.41617
ick	-9.4171
é	-9.41818
▁shop	-9.41832
fi	-9.41941
▁steps	-9.41943
▁stream	-9.42005
00	-9.42015
▁sw	-9.42076
▁learned	-9.42085
ning	-9.42104
fe	-9.42109
▁below	-9.42318
▁wear	-9.42341
▁south	-9.42368
▁edge	-9.42405
ory	-9.42463
▁iron	-9.42569
▁y	-9.42656
Who	-9.42663
ble	-9.42723
▁smiled	-9.42752
▁narrow	-9.42756
▁Con	-9.42801
▁heaven	-9.42947
▁troops	-9.42957
dge	-9.43051
▁ma	-9.4319
au	-9.43238
▁closed	-9.43427
▁prince	-9.43454
▁board	-9.43511
let	-9.43597
▁decided	-9.43816
▁married	-9.43896
▁spot	-9.43916
▁paid	-9.43919
▁comes	-9.43935
ably	-9.4396
▁cha	-9.4396
▁gun	-9.43982
ave	-9.44057
▁silver	-9.44085
Some	-9.44237
lin	-9.44295
▁especially	-9.44304
▁threw	-9.44468
▁16	-9.44526
▁v	-9.44685
ris	-9.44802
▁pen	-9.44842
▁guess	-9.44852
▁support	-9.44855
▁regard	-9.44859
▁Teddy	-9.44888
▁tall	-9.44978
▁scene	-9.4505
▁worth	-9.45132
▁el	-9.45198
mer	-9.45198
▁simple	-9.45238
act	-9.45385
ey	-9.45429
▁lord	-9.45437
pped	-9.45445
ug	-9.45452
),	-9.45496
▁mountain	-9.45504
▁makes	-9.45559
▁duty	-9.45645
▁pan	-9.45691
▁note	-9.46098
▁rise	-9.46209
▁start	-9.46241
▁expression	-9.46277
▁space	-9.46404
▁weak	-9.46428
ip	-9.4655
gr	-9.4659
▁appearance	-9.46619
▁James	-9.46634
▁ro	-9.46669
▁turning	-9.46849
▁sharp	-9.47044
os	-9.47103
▁faint	-9.4719
▁changed	-9.47483
▁leaving	-9.47588
▁sand	-9.47618
▁hung	-9.47718
▁houses	-9.47765
her	-9.47778
▁arrived	-9.47873
ep	-9.47934
V	-9.47988
▁quick	-9.48036
▁situation	-9.48179
Where	-9.48269
ran	-9.48346
▁colour	-9.48404
▁meeting	-9.48434
uff	-9.48487
▁Ro	-9.4867
Her	-9.48799
tra	-9.48806
▁condition	-9.48897
▁sign	-9.48908
▁lead	-9.49084
▁pray	-9.491
▁comp	-9.49229
▁Ca	-9.49323
▁lower	-9.4939
▁remain	-9.49418
▁reply	-9.49492
▁guard	-9.49555
Mr	-9.49568
▁song	-9.49739
▁military	-9.49784
▁blind	-9.49784
▁rule	-9.49788
▁Man	-9.498
▁loud	-9.49834
ner	-9.49899
▁system	-9.49986
▁weather	-9.49986
▁sick	-9.49991
ered	-9.50027
▁century	-9.50189
▁shook	-9.50196
▁fifty	-9.50392
▁gentleman	-9.50421
▁broad	-9.50596
▁journey	-9.50596
▁difference	-9.506
▁bare	-9.5072
▁merely	-9.50789
▁habit	-9.50804
▁yellow	-9.50807
some	-9.51135
▁shore	-9.51211
▁speaking	-9.51308
ib	-9.51349
▁spite	-9.51447
From	-9.51517
▁perfect	-9.51606
▁latter	-9.51621
▁giving	-9.51621
▁seeing	-9.51628
▁May	-9.51708
▁Ruth	-9.51745
▁flowers	-9.51787
▁Old	-9.51793
▁House	-9.51837
▁cast	-9.51895
▁main	-9.51945
▁ring	-9.51946
▁escape	-9.52077
Ah	-9.52086
▁w	-9.52094
▁period	-9.5224
▁accept	-9.52288
my	-9.525
▁Mo	-9.52542
ther	-9.52689
RE	-9.52773
▁consider	-9.5279
▁dollars	-9.5286
▁spread	-9.52869
▁serious	-9.5294
▁brain	-9.52956
▁seat	-9.53007
ping	-9.53082
▁lying	-9.53149
▁crowd	-9.53205
▁talking	-9.53269
▁London	-9.53282
▁clothes	-9.53374
▁du	-9.53426
▁lives	-9.53428
ze	-9.53469
▁study	-9.53492
▁worse	-9.53702
▁picture	-9.5374
▁born	-9.53762
AN	-9.53799
▁allowed	-9.53821
▁noise	-9.53822
▁exactly	-9.5384
▁trade	-9.53897
▁instead	-9.53907
ible	-9.53945
ple	-9.53965
▁drive	-9.54033
▁finally	-9.54301
▁carriage	-9.54335
▁thirty	-9.54335
▁Major	-9.54373
▁brave	-9.54381
▁watched	-9.54393
▁notice	-9.54522
▁bread	-9.54553
▁ca	-9.54555
▁fool	-9.54751
▁influence	-9.54759
▁meat	-9.5487
▁shadow	-9.55067
▁tr	-9.55116
▁advantage	-9.55398
▁bill	-9.55459
king	-9.55586
▁wrote	-9.55613
▁Oliver	-9.55613
▁places	-9.55752
ins	-9.55847
▁par	-9.55883
▁sail	-9.55929
▁soldier	-9.56141
▁perfectly	-9.56184
ill	-9.56454
—"	-9.56463
▁Mar	-9.56504
Be	-9.56524
▁yes	-9.56584
▁surprise	-9.56754
▁walls	-9.56815
▁letters	-9.56826
▁devil	-9.56909
ched	-9.56991
▁3	-9.57013
▁buy	-9.5705
▁Ch	-9.57174
▁church	-9.5723
▁sub	-9.57376
▁price	-9.57579
ah	-9.57735
▁Maya	-9.57755
▁valley	-9.5778
▁York	-9.5778
While	-9.57784
▁due	-9.57843
tain	-9.57917
lie	-9.5797
CHAPTER	-9.57999
▁honour	-9.57999
▁Union	-9.5802
▁thin	-9.58029
▁determined	-9.58058
▁mountains	-9.58138
▁unto	-9.58191
▁future	-9.58219
▁content	-9.58308
▁rep	-9.58358
▁animal	-9.58598
▁terrible	-9.5866
▁bitter	-9.58665
ler	-9.58672
▁bow	-9.58681
▁Marguerite	-9.58686
rt	-9.58709
▁cool	-9.5874
▁cur	-9.58794
▁comfort	-9.58836
▁explained	-9.5892
▁path	-9.58979
ley	-9.5913
▁tale	-9.59169
▁slow	-9.59245
▁dare	-9.59285
▁various	-9.59325
▁unless	-9.59405
▁inside	-9.59438
clock	-9.59487
▁dust	-9.59571
ai	-9.59608
ier	-9.59647
▁sorry	-9.59677
▁By	-9.59691
▁bell	-9.59737
▁Henry	-9.59773
▁1	-9.59789
▁creature	-9.59967
▁sad	-9.59986
ries	-9.59992
▁judge	-9.59995
▁control	-9.59995
▁built	-9.59995
▁shape	-9.59996
▁glance	-9.60073
▁race	-9.60077
▁share	-9.60079
▁hurt	-9.60226
▁dry	-9.6031
▁va	-9.60367
▁legs	-9.60432
▁fit	-9.60442
▁harm	-9.60448
▁pi	-9.60593
▁catch	-9.60741
▁month	-9.60888
▁bird	-9.6089
▁confidence	-9.60896
!'	-9.60909
▁Captain	-9.60942
▁generally	-9.60955
J	-9.61069
▁allow	-9.61083
▁ears	-9.61095
▁conduct	-9.61121
▁effort	-9.61121
▁forgotten	-9.61127
▁possession	-9.6118
kin	-9.6124
▁clean	-9.61348
▁stick	-9.61376
▁curious	-9.6159
▁store	-9.6161
▁Eliza	-9.61802
▁sorrow	-9.61803
▁Some	-9.61813
▁shoulder	-9.61839
▁hu	-9.61991
form	-9.62019
▁history	-9.62036
▁whispered	-9.62192
io	-9.62226
▁working	-9.62229
ator	-9.62233
▁fixed	-9.62249
▁repeated	-9.62288
▁mighty	-9.62381
og	-9.62407
▁sa	-9.62461
▁girls	-9.62492
▁Charlotte	-9.62521
▁Clover	-9.62546
▁Pa	-9.62697
▁marriage	-9.62719
ger	-9.62758
▁appear	-9.62862
▁actually	-9.62873
▁considered	-9.62894
▁complete	-9.6293
▁moon	-9.62959
▁Master	-9.6297
▁gray	-9.62984
▁exist	-9.63089
fer	-9.6315
▁waited	-9.63199
ative	-9.63203
▁Benny	-9.63226
▁justice	-9.63267
▁declared	-9.63299
▁tongue	-9.63416
▁mass	-9.63618
▁cook	-9.63672
▁ride	-9.63749
▁books	-9.63837
▁ri	-9.63845
▁weeks	-9.63861
▁private	-9.63876
▁Christ	-9.63884
ba	-9.63895
▁count	-9.63979
▁roof	-9.64119
▁color	-9.64235
▁couple	-9.64343
▁wealth	-9.64345
▁4	-9.64348
ach	-9.64382
▁somewhat	-9.64423
▁Oh	-9.64436
▁ice	-9.64449
▁thank	-9.64456
▁suit	-9.64457
▁square	-9.64477
▁charge	-9.64532
eg	-9.64534
▁fingers	-9.64551
▁im	-9.64552
▁darkness	-9.64557
▁difficulty	-9.64573
▁custom	-9.64812
▁search	-9.64813
▁mad	-9.64816
▁Dick	-9.64853
▁spent	-9.64872
ham	-9.64883
▁goes	-9.64923
▁breast	-9.65047
▁although	-9.65051
Come	-9.65228
▁Peter	-9.65277
▁value	-9.65285
▁dropped	-9.65292
▁greatest	-9.65411
ration	-9.65436
▁loss	-9.65617
▁fallen	-9.6564
use	-9.65731
▁drop	-9.65739
▁understood	-9.65756
ee	-9.65876
,000	-9.65995
▁wore	-9.66037
▁salt	-9.66249
▁calm	-9.6637
▁degree	-9.66471
▁cup	-9.66479
▁supposed	-9.66522
▁offered	-9.66627
▁lines	-9.6671
▁sake	-9.66729
fully	-9.66912
▁watching	-9.67163
▁game	-9.67192
▁morrow	-9.67194
ked	-9.67343
▁proper	-9.67408
▁British	-9.67431
▁political	-9.67431
▁travel	-9.67453
▁meaning	-9.67454
▁;	-9.67473
ab	-9.67664
▁anxious	-9.67673
▁Jim	-9.67698
▁east	-9.67786
▁nation	-9.67842
▁proud	-9.67949
▁From	-9.68037
▁mis	-9.6804
hy	-9.68044
▁bottom	-9.68157
▁fighting	-9.68172
▁members	-9.68379
▁thoughts	-9.68385
▁liked	-9.68411
▁fleet	-9.68491
▁nobody	-9.68552
ken	-9.68646
▁prepared	-9.68751
ray	-9.68844
▁promise	-9.69009
▁cross	-9.6906
▁coat	-9.69062
ugh	-9.69087
▁quarter	-9.69135
▁task	-9.69136
▁draw	-9.69164
▁lose	-9.6918
▁passage	-9.69184
▁discovered	-9.69297
ook	-9.69311
▁priest	-9.69407
▁woods	-9.69424
▁alive	-9.69445
da	-9.69479
▁news	-9.69672
wi	-9.69693
▁Elizabeth	-9.69693
▁building	-9.69716
ON	-9.69739
▁receive	-9.6975
out	-9.69892
▁leg	-9.69929
▁animals	-9.69943
▁circumstances	-9.70041
tro	-9.70071
▁instance	-9.70124
▁range	-9.70146
▁—	-9.70188
▁struggle	-9.70369
▁After	-9.70458
▁material	-9.70618
▁shoulders	-9.70623
▁drawn	-9.70654
▁according	-9.70716
▁heads	-9.70735
ew	-9.70744
▁presently	-9.70765
▁wound	-9.70801
▁forty	-9.7084
▁Y	-9.7085
>	-9.70867
▁Christian	-9.70905
▁remark	-9.71006
▁sur	-9.71015
▁surprised	-9.71043
ide	-9.71074
▁Jo	-9.71084
▁machine	-9.71087
▁mark	-9.71095
▁Don	-9.71135
▁formed	-9.71222
▁holding	-9.7129
▁nose	-9.71344
▁Chinese	-9.71368
▁proved	-9.71485
▁castle	-9.715
▁listen	-9.71564
Good	-9.71566
▁observed	-9.71579
▁twelve	-9.71619
▁!	-9.71723
▁angry	-9.71873
▁beat	-9.71893
▁Crow	-9.71904
▁German	-9.71941
▁wine	-9.71966
▁cost	-9.71968
▁gentle	-9.7207
▁hi	-9.72174
▁prove	-9.72254
▁These	-9.72331
▁pick	-9.72375
▁looks	-9.72472
▁stared	-9.72517
▁opportunity	-9.7263
▁rough	-9.72638
ack	-9.72878
▁sing	-9.72923
▁anybody	-9.72966
▁orders	-9.72974
▁offer	-9.72997
▁concern	-9.73074
▁Unite	-9.73192
▁...	-9.73292
ified	-9.73427
▁companion	-9.73476
▁ear	-9.73565
▁cloth	-9.73583
▁com	-9.73624
▁island	-9.73632
▁flesh	-9.73652
▁Philip	-9.73657
▁Lo	-9.73666
▁authority	-9.73681
▁enter	-9.73684
▁pleased	-9.73749
▁burst	-9.7391
▁regular	-9.7391
▁Hilton	-9.73956
ging	-9.74019
ain	-9.74028
▁march	-9.74038
ER	-9.74052
▁Let	-9.74106
che	-9.74107
▁cruel	-9.74209
▁Paul	-9.7424
▁gar	-9.74252
▁worked	-9.74274
▁advance	-9.74314
▁dance	-9.74407
▁language	-9.74425
▁bu	-9.74539
port	-9.74561
▁likely	-9.74593
▁higher	-9.74593
uc	-9.74614
▁grand	-9.74665
▁passing	-9.74938
▁official	-9.74944
▁season	-9.74995
▁inter	-9.75064
▁taste	-9.75122
▁Who	-9.75161
ki	-9.75189
▁growing	-9.75264
▁i	-9.75274
▁bent	-9.75429
▁capital	-9.75443
row	-9.75471
▁pe	-9.75507
▁courage	-9.75727
▁dozen	-9.75728
▁15	-9.75746
ied	-9.75836
▁seek	-9.7589
▁peculiar	-9.7599
▁U	-9.76021
▁rate	-9.76068
▁lovely	-9.76125
cept	-9.76127
▁flat	-9.76168
▁cat	-9.76241
▁loose	-9.76265
▁ball	-9.76352
▁haven	-9.76402
ric	-9.76443
▁spoken	-9.76452
▁Po	-9.76469
▁happiness	-9.76517
▁smiling	-9.76517
▁strike	-9.76517
▁pure	-9.76577
▁cover	-9.76672
▁explain	-9.76735
▁noticed	-9.76744
rag	-9.76774
▁tu	-9.76794
▁willing	-9.76831
▁ways	-9.76983
▁failed	-9.77037
▁station	-9.77078
▁fer	-9.77151
gen	-9.77169
▁crown	-9.77267
▁throat	-9.77313
▁Li	-9.77323
▁obliged	-9.77345
ches	-9.77446
▁health	-9.7759
time	-9.77593
▁Ju	-9.77717
▁knowing	-9.77763
▁begun	-9.77865
▁existence	-9.77867
▁fill	-9.77931
▁Where	-9.77991
▁hurried	-9.78117
▁fly	-9.78147
ify	-9.78205
▁pity	-9.78214
▁believed	-9.78268
▁imagine	-9.78282
low	-9.78305
▁impression	-9.78432
▁Z	-9.78446
Ma	-9.7846
▁Go	-9.78476
ening	-9.78519
▁lodge	-9.78666
old	-9.78756
▁walking	-9.78837
▁seized	-9.78893
▁questions	-9.78916
▁nine	-9.78921
▁beneath	-9.78923
▁birds	-9.7893
▁parts	-9.78935
▁stars	-9.79155
▁demand	-9.79163
rate	-9.79185
▁Hu	-9.79187
lar	-9.79241
▁vain	-9.79327
▁honest	-9.79466
▁royal	-9.79467
▁afterwards	-9.79487
▁Timothy	-9.7949
Go	-9.79565
▁passion	-9.79569
▁carefully	-9.79695
▁fate	-9.79726
▁tired	-9.79853
▁dressed	-9.79861
are	-9.79867
▁amount	-9.80014
▁mistress	-9.8002
ency	-9.80034
▁everybody	-9.80059
▁considerable	-9.80061
▁hate	-9.80085
ists	-9.8017
▁agreed	-9.80215
▁cab	-9.80265
▁throw	-9.80315
miss	-9.80367
▁se	-9.80429
▁soldiers	-9.8044
she	-9.80468
uch	-9.80525
▁grandmother	-9.8056
▁odd	-9.80575
▁lack	-9.80621
▁touched	-9.80646
▁flow	-9.80662
▁played	-9.80797
▁fat	-9.80868
▁tender	-9.80921
LE	-9.80987
ES	-9.81023
▁Norman	-9.81143
▁leaves	-9.81166
ties	-9.81358
.)	-9.81374
▁society	-9.81389
▁lamp	-9.8139
▁suffer	-9.814
▁knees	-9.81483
▁serve	-9.81577
▁wh	-9.81765
burg	-9.81788
▁port	-9.81908
▁row	-9.81909
▁shaggy	-9.81946
▁asleep	-9.81946
▁murder	-9.82206
▁false	-9.82225
▁na	-9.82276
▁officers	-9.82288
▁prayer	-9.82365
▁direct	-9.82366
▁slaves	-9.82379
▁key	-9.82514
▁succeeded	-9.8252
▁finger	-9.82541
Ha	-9.82597
od	-9.82604
▁bore	-9.82728
light	-9.8273
▁method	-9.82786
▁property	-9.82812
▁Da	-9.8284
▁Can	-9.82843
▁remembered	-9.82845
▁dim	-9.82931
▁fruit	-9.83068
▁pair	-9.83118
▁pointed	-9.83168
▁band	-9.8321
ear	-9.83219
▁depend	-9.83321
▁Confederate	-9.8335
▁argument	-9.8335
▁example	-9.8335
▁breakfast	-9.83353
▁rode	-9.83391
▁quietly	-9.83427
▁listened	-9.83442
▁crossed	-9.83449
▁promised	-9.83494
▁social	-9.83498
▁former	-9.83499
▁windows	-9.83536
rac	-9.8363
▁memory	-9.83634
▁June	-9.83719
▁hide	-9.8379
▁express	-9.83818
▁kiss	-9.83912
▁similar	-9.83917
▁Yet	-9.83918
▁opposite	-9.8392
▁marry	-9.83947
▁drawing	-9.83955
▁refused	-9.84086
▁opening	-9.8418
▁popular	-9.84202
▁empty	-9.84207
▁huge	-9.8422
▁mile	-9.84245
▁cloud	-9.84271
▁golden	-9.84314
▁caused	-9.84672
with	-9.84735
ery	-9.84736
▁conversation	-9.84775
▁moving	-9.84775
▁South	-9.84775
▁importance	-9.84782
▁streets	-9.84787
▁vote	-9.84805
▁report	-9.84832
▁equal	-9.85008
▁moral	-9.85043
▁ships	-9.85063
ker	-9.85084
ets	-9.85114
▁West	-9.85138
▁besides	-9.85142
▁pieces	-9.85268
▁palace	-9.8535
iness	-9.8536
▁awful	-9.85388
▁Dorothy	-9.8539
▁sha	-9.8557
▁Irish	-9.85644
▁flower	-9.8565
▁rank	-9.85651
▁fun	-9.85656
▁ahead	-9.85837
▁praise	-9.85929
▁glory	-9.8622
▁grown	-9.86488
▁religious	-9.86511
▁terror	-9.86511
▁education	-9.86528
▁foreign	-9.86529
▁spend	-9.86534
▁powers	-9.86554
▁ordered	-9.86585
▁cow	-9.86765
▁distant	-9.86804
▁prevent	-9.86813
▁writing	-9.87
cent	-9.87088
▁Well	-9.87089
▁grim	-9.87099
▁freedom	-9.87111
▁grace	-9.87131
▁belong	-9.87139
▁North	-9.87168
▁fail	-9.87175
▁rage	-9.87231
▁dreadful	-9.87385
▁ancient	-9.87391
▁gift	-9.87399
▁driven	-9.8749
▁handsome	-9.87498
▁softly	-9.87545
▁lu	-9.87569
Yet	-9.87601
▁terms	-9.87648
▁progress	-9.87693
▁bold	-9.87725
cher	-9.879
▁job	-9.88044
▁adventure	-9.88284
▁pulled	-9.88453
▁rapidly	-9.88567
▁welcome	-9.88576
▁surely	-9.88587
▁delight	-9.88662
▁tail	-9.88677
▁nearer	-9.88714
▁Paris	-9.88842
▁mistake	-9.88895
▁rising	-9.88895
▁hast	-9.88938
▁farm	-9.89091
▁add	-9.89105
▁5	-9.89252
▁Se	-9.89273
▁protect	-9.89429
▁aunt	-9.89457
▁ordinary	-9.89474
▁ourselves	-9.89474
▁record	-9.89475
cul	-9.89507
▁da	-9.89574
▁ceased	-9.89664
▁enjoy	-9.89737
▁laughing	-9.89754
▁dawn	-9.89776
stead	-9.89813
▁Father	-9.89854
▁national	-9.89906
▁height	-9.89938
▁million	-9.89939
▁Sh	-9.89997
▁fifteen	-9.90003
▁size	-9.90038
▁horror	-9.90078
▁drove	-9.90078
▁Law	-9.90143
▁Th	-9.90302
▁Japanese	-9.90381
▁outlaw	-9.90381
▁wondered	-9.90388
▁risk	-9.90389
▁faces	-9.90548
▁Here	-9.90619
▁neighbor	-9.9068
▁regiment	-9.90685
▁thunder	-9.90687
ans	-9.90739
▁deed	-9.90858
▁rear	-9.90943
▁otherwise	-9.9099
ose	-9.91093
▁needed	-9.91203
Very	-9.91293
▁keeping	-9.91294
▁chest	-9.913
▁River	-9.91314
▁shame	-9.91353
▁Aunt	-9.91365
▁vast	-9.91392
▁rooms	-9.91458
▁slavery	-9.91652
▁yards	-9.91658
day	-9.91663
▁persons	-9.91885
▁moments	-9.91941
dding	-9.91982
▁ver	-9.92009
▁aside	-9.92048
cing	-9.92076
▁chi	-9.92142
▁officer	-9.92201
▁press	-9.92215
▁Not	-9.92294
▁Louise	-9.92339
▁shade	-9.92378
▁Co	-9.92443
▁solemn	-9.92528
Thus	-9.92544
IN	-9.92607
▁playing	-9.92629
▁powerful	-9.92663
▁lies	-9.92668
▁miss	-9.92757
▁fond	-9.92884
▁remarked	-9.9293
▁matters	-9.93087
▁intended	-9.93134
▁design	-9.9315
▁pride	-9.93184
ute	-9.93238
▁original	-9.93252
like	-9.93394
gue	-9.93401
▁grey	-9.93465
▁silk	-9.93471
▁fi	-9.93517
▁wit	-9.93601
▁star	-9.93628
▁talked	-9.93628
how	-9.93715
▁police	-9.93741
▁altogether	-9.93776
▁wheel	-9.93776
cur	-9.9387
▁lifted	-9.93967
▁Manchu	-9.94091
▁servant	-9.94118
▁apparently	-9.94252
▁fully	-9.94374
▁queer	-9.94408
▁Count	-9.94408
▁Com	-9.94409
▁greatly	-9.9441
X	-9.94558
▁laws	-9.94629
oc	-9.94664
▁mill	-9.94664
▁stage	-9.94695
▁consequence	-9.94723
▁Church	-9.94723
▁successful	-9.94743
▁Raffles	-9.94761
▁log	-9.94817
Did	-9.94841
▁stepp	-9.9493
▁Jolyon	-9.9504
▁pipe	-9.9504
▁aid	-9.95112
▁base	-9.95182
ire	-9.9531
hood	-9.95438
▁attitude	-9.95679
▁hurry	-9.95683
Every	-9.95687
▁curtain	-9.95688
▁suffered	-9.95702
▁Nor	-9.95722
ized	-9.95753
body	-9.95865
▁speed	-9.9599
▁religion	-9.95998
▁satisfied	-9.95998
▁chamber	-9.95999
▁modern	-9.95999
▁west	-9.96002
▁vague	-9.96005
▁thrown	-9.96007
▁bridge	-9.9601
▁bull	-9.96092
▁gain	-9.96111
▁completely	-9.96153
▁settled	-9.9623
▁Lessingham	-9.9632
▁Lady	-9.96337
▁Mon	-9.96387
▁named	-9.96405
▁wa	-9.96433
St	-9.96579
▁accident	-9.96643
▁aware	-9.96648
▁k	-9.96688
▁tin	-9.96734
art	-9.96784
rd	-9.96846
vy	-9.96858
▁cheer	-9.96936
▁familiar	-9.96966
▁twice	-9.96966
▁fancy	-9.96985
▁affairs	-9.96999
▁wounded	-9.97065
▁conditions	-9.97104
▁forced	-9.97207
▁finished	-9.9721
▁chain	-9.97268
▁afford	-9.97291
ob	-9.97385
Your	-9.97401
▁mat	-9.97458
▁Turtle	-9.97617
▁exercise	-9.97617
▁August	-9.97642
▁Bob	-9.97701
lan	-9.97743
▁finding	-9.97754
cle	-9.97841
▁fortune	-9.97944
▁produced	-9.97946
▁taught	-9.9795
▁motion	-9.97953
▁fought	-9.97953
▁demanded	-9.97984
▁telling	-9.9815
▁hunt	-9.98231
▁reckon	-9.98271
▁somewhere	-9.98338
▁marked	-9.98377
ank	-9.98502
▁conscious	-9.98539
▁favor	-9.98591
▁Spanish	-9.986
▁savage	-9.986
▁fault	-9.98601
▁region	-9.98678
▁paused	-9.98873
▁lover	-9.98881
▁entire	-9.98919
▁knight	-9.9893
▁sacrifice	-9.9893
▁Sunday	-9.98932
▁weight	-9.98964
cy	-9.98976
▁carrying	-9.99021
Have	-9.99063
▁mentioned	-9.99082
▁portion	-9.99095
▁War	-9.99135
orn	-9.99185
▁instinct	-9.99261
▁anger	-9.99272
▁Charles	-9.993
▁suggested	-9.99355
▁sold	-9.99475
what	-9.99504
▁Even	-9.99571
▁enemies	-9.99594
▁local	-9.99601
▁worn	-9.99601
▁pressed	-9.99882
▁vision	-9.99932
Perhaps	-9.99952
▁wings	-10.0008
bu	-10.0022
▁despair	-10.0026
▁emotion	-10.0026
▁supply	-10.0026
▁coast	-10.0026
▁strain	-10.0027
Even	-10.0029
▁farther	-10.0034
▁bought	-10.0042
▁claim	-10.0048
▁major	-10.0055
THE	-10.0056
▁quarrel	-10.006
▁level	-10.006
▁hidden	-10.006
spect	-10.0068
▁sentence	-10.0068
▁intention	-10.0068
▁engaged	-10.0071
▁midst	-10.0073
gged	-10.0074
▁inquired	-10.0074
▁organ	-10.0081
▁confess	-10.0085
▁disappeared	-10.0088
▁contrary	-10.0093
▁imagination	-10.0093
▁whisper	-10.0103
ress	-10.0118
▁gathered	-10.0121
▁smooth	-10.0127
▁wicked	-10.0127
▁Orange	-10.0128
▁dangerous	-10.0132
▁cre	-10.0139
▁meal	-10.0146
▁mar	-10.015
▁sides	-10.0156
▁admit	-10.0158
▁thrust	-10.0161
▁complain	-10.0161
▁cent	-10.017
▁assured	-10.0175
▁frightened	-10.018
▁cor	-10.019
▁Washington	-10.0195
▁immense	-10.0195
▁trail	-10.0195
▁native	-10.0195
▁Walter	-10.0198
▁required	-10.0198
▁hang	-10.0215
▁2	-10.0221
OR	-10.0222
▁require	-10.0226
▁Kedsty	-10.0229
▁kitchen	-10.0229
▁sought	-10.0232
pping	-10.0238
▁gods	-10.0283
▁treat	-10.0287
▁occupied	-10.0298
▁shock	-10.0299
▁guns	-10.03
Look	-10.0304
▁Soames	-10.0306
▁relief	-10.0332
▁bodies	-10.0332
▁element	-10.0333
▁manage	-10.0338
board	-10.0339
▁throughout	-10.0342
▁pin	-10.0342
▁sell	-10.0348
cra	-10.0351
▁discover	-10.036
▁usually	-10.0362
▁efforts	-10.0367
▁entrance	-10.0367
▁avoid	-10.0367
▁opposition	-10.0367
▁supper	-10.0368
ka	-10.0377
▁somebody	-10.0379
▁leading	-10.0388
AL	-10.0391
▁minister	-10.0402
▁problem	-10.0402
▁teeth	-10.0402
▁fields	-10.0404
gan	-10.0411
▁hotel	-10.0413
▁Great	-10.0413
▁beg	-10.0413
▁events	-10.0427
▁Fa	-10.0429
▁civil	-10.0436
▁Heaven	-10.0437
▁firm	-10.0437
▁sum	-10.0449
▁address	-10.0449
▁fa	-10.0455
▁flag	-10.046
▁dull	-10.046
▁suffering	-10.0467
▁servants	-10.0468
▁fur	-10.0471
▁necessity	-10.0471
▁satisfaction	-10.0471
▁frame	-10.0471
▁retreat	-10.0471
▁excitement	-10.0472
▁track	-10.0472
Those	-10.0475
▁majority	-10.0477
▁favour	-10.0504
▁Bishop	-10.0507
▁horn	-10.0507
▁hills	-10.0524
▁build	-10.0524
▁interesting	-10.0533
hu	-10.0537
▁temper	-10.0542
▁unknown	-10.0542
▁rapid	-10.0543
Because	-10.0546
▁van	-10.0547
▁den	-10.0548
▁directly	-10.0549
▁victory	-10.055
▁wants	-10.0555
▁absolutely	-10.0561
Are	-10.0561
▁afterward	-10.0566
▁nurse	-10.0577
▁ladies	-10.0579
▁clearly	-10.0608
ral	-10.0608
▁evidence	-10.0613
▁guide	-10.0613
▁plenty	-10.0613
▁Gosta	-10.0613
▁flame	-10.0614
▁Was	-10.0614
▁delay	-10.0617
not	-10.0639
▁accepted	-10.064
▁saved	-10.064
▁falling	-10.0645
▁burning	-10.0646
ock	-10.0647
▁superior	-10.0648
▁parents	-10.0651
▁ended	-10.0654
ised	-10.0655
▁secure	-10.0657
▁Ga	-10.0672
▁message	-10.0684
▁occurred	-10.0685
▁chap	-10.07
▁lift	-10.0701
▁Sp	-10.0707
▁process	-10.071
Re	-10.0719
▁Catholic	-10.072
▁crack	-10.072
▁type	-10.072
▁trick	-10.0724
▁Josie	-10.0728
▁possessed	-10.0728
▁list	-10.0734
▁asking	-10.0738
▁temple	-10.0756
▁yield	-10.0756
▁sufficient	-10.0757
▁thine	-10.0758
▁principle	-10.0759
▁pushed	-10.0763
par	-10.0781
▁mist	-10.0789
▁advice	-10.0792
▁crime	-10.0792
▁information	-10.0792
▁forgive	-10.0792
▁dying	-10.0793
▁stuff	-10.0796
▁resolved	-10.0802
rie	-10.0808
hor	-10.0812
▁date	-10.0816
▁pull	-10.082
▁folk	-10.0824
▁flying	-10.0828
▁April	-10.0828
▁slept	-10.0828
▁stock	-10.083
▁arrangement	-10.0836
▁consist	-10.0844
Indeed	-10.0845
▁gently	-10.0864
▁East	-10.0865
▁witness	-10.0872
▁America	-10.0873
▁maid	-10.09
▁acquaintance	-10.0901
▁stones	-10.0901
Such	-10.0913
▁friendly	-10.0922
▁worst	-10.0937
▁trunk	-10.0938
▁Every	-10.0948
▁clock	-10.0955
ung	-10.0958
▁glow	-10.0964
▁circle	-10.0974
▁merchant	-10.0974
▁keen	-10.0974
▁shoes	-10.0975
▁kissed	-10.0975
▁everywhere	-10.0978
jo	-10.0978
ants	-10.0979
▁creatures	-10.0979
▁flight	-10.098
▁naturally	-10.0984
▁Bill	-10.0987
▁fairy	-10.0997
▁regarded	-10.1011
▁nervous	-10.1011
▁worship	-10.1011
▁governor	-10.1018
▁tri	-10.1025
▁flash	-10.1027
▁shouted	-10.1047
▁Cragg	-10.1048
▁utter	-10.1048
▁addition	-10.1048
▁bath	-10.1048
▁slight	-10.1053
fin	-10.1054
(	-10.1054
▁proposed	-10.1064
▁rushed	-10.1065
▁upper	-10.107
▁staring	-10.1079
▁qua	-10.1084
▁obey	-10.1085
▁hit	-10.1086
▁particularly	-10.1087
▁rebel	-10.1087
▁mental	-10.1097
▁joined	-10.1101
▁sheep	-10.1116
don	-10.1117
▁counsel	-10.1123
▁violent	-10.1123
▁gleam	-10.1123
▁produce	-10.1123
▁compelled	-10.1123
▁butter	-10.1128
▁hungry	-10.1128
▁provinces	-10.1131
▁Ja	-10.1132
▁spare	-10.1136
▁larger	-10.1157
▁George	-10.116
▁truly	-10.116
▁reading	-10.1163
▁Colonel	-10.1164
▁Di	-10.1166
▁served	-10.1173
▁bid	-10.118
▁doors	-10.1181
there	-10.1195
▁Doctor	-10.1198
▁lock	-10.1199
▁mud	-10.1201
ye	-10.1203
▁lake	-10.1203
TH	-10.1217
▁ti	-10.1223
▁increased	-10.1224
▁spi	-10.1225
▁leaned	-10.1234
▁campaign	-10.1235
▁possibly	-10.1235
▁stairs	-10.1236
▁daily	-10.1237
▁Katy	-10.1237
Thank	-10.1239
▁heat	-10.1239
▁seated	-10.1247
▁dreams	-10.1253
▁evidently	-10.1257
ump	-10.1265
▁brief	-10.1273
▁defend	-10.1273
▁profit	-10.1273
▁proof	-10.1277
▁fierce	-10.1277
Their	-10.1285
▁Ru	-10.1285
▁stretched	-10.1288
▁shake	-10.1292
▁milk	-10.1311
▁shoot	-10.1311
▁ne	-10.1311
▁double	-10.1312
▁flew	-10.1313
▁approach	-10.1316
▁calling	-10.1338
▁strip	-10.1354
▁kindly	-10.1377
▁block	-10.1389
▁project	-10.1395
rous	-10.1396
▁Ne	-10.1396
Nothing	-10.1399
▁pu	-10.1411
rg	-10.1417
rated	-10.1419
▁queen	-10.1426
▁Irene	-10.1427
aries	-10.1431
▁Marette	-10.1431
Thou	-10.1436
pen	-10.1442
▁hero	-10.1443
▁helpless	-10.1448
▁Yes	-10.1448
▁drift	-10.1465
▁ghost	-10.1465
▁solid	-10.1466
▁image	-10.1468
▁6	-10.1469
▁Ingua	-10.147
▁pot	-10.147
ians	-10.1472
▁hoped	-10.1488
▁points	-10.1491
uous	-10.1498
▁awake	-10.1504
▁cattle	-10.1504
▁failure	-10.1506
▁bag	-10.1511
tress	-10.1512
▁appointed	-10.1516
▁somehow	-10.1518
▁arranged	-10.1519
▁wondering	-10.1529
EN	-10.1532
▁10	-10.1538
▁worthy	-10.154
bi	-10.1544
▁Bosinney	-10.1545
▁waste	-10.155
▁equally	-10.155
▁cu	-10.1566
▁interrupted	-10.1567
▁Netherlands	-10.1567
▁unable	-10.1567
▁poet	-10.1572
▁pine	-10.1575
▁famous	-10.1582
▁skill	-10.1582
▁recall	-10.1582
▁baby	-10.1585
▁takes	-10.1591
▁tight	-10.1591
▁fri	-10.1603
▁tower	-10.1604
▁mi	-10.1619
▁district	-10.1621
▁practice	-10.1621
▁Glegg	-10.1621
▁mysterious	-10.1621
▁excuse	-10.1621
▁fairly	-10.1622
shed	-10.1622
▁earn	-10.1631
house	-10.1632
De	-10.1637
▁Dan	-10.1638
Never	-10.1638
▁ruin	-10.1642
rap	-10.1646
▁Montfort	-10.166
▁extraordinary	-10.166
▁surface	-10.166
aunt	-10.1664
▁plant	-10.1665
ix	-10.1668
▁cheeks	-10.1687
▁highest	-10.1688
▁Queen	-10.17
▁request	-10.17
▁rush	-10.1709
▁mention	-10.1711
come	-10.1712
▁faced	-10.1715
▁wake	-10.1727
▁eager	-10.1739
▁decision	-10.1739
▁knife	-10.1739
▁defeat	-10.174
▁busy	-10.174
▁blame	-10.1742
▁consciousness	-10.1747
▁picked	-10.175
▁faithful	-10.1752
▁Har	-10.1755
▁opera	-10.1759
▁parties	-10.1767
▁pile	-10.1768
▁Your	-10.177
▁Na	-10.1772
▁forces	-10.1777
▁surrender	-10.1779
▁kingdom	-10.1781
▁19	-10.1793
▁established	-10.1801
Again	-10.1814
▁desperate	-10.1819
▁purchase	-10.1819
▁splendid	-10.1819
▁cloak	-10.182
▁shown	-10.1822
▁princess	-10.1833
▁host	-10.1843
cus	-10.1844
▁Council	-10.1859
▁patient	-10.1859
▁mercy	-10.1859
▁anywhere	-10.1867
ual	-10.1871
▁Bland	-10.1872
▁hanging	-10.1881
▁Cha	-10.1885
▁join	-10.1886
tis	-10.1888
q	-10.1891
▁bra	-10.1894
Mrs	-10.1895
▁beast	-10.1897
▁stupid	-10.19
▁relative	-10.19
▁stiff	-10.19
▁raise	-10.1906
▁yard	-10.191
▁lest	-10.1918
▁Their	-10.192
▁mor	-10.1922
▁hunter	-10.1924
aving	-10.1926
▁visitor	-10.1927
▁grasp	-10.194
▁sprang	-10.1943
▁bade	-10.1943
oth	-10.1945
Our	-10.1947
Before	-10.195
▁pound	-10.1951
ister	-10.1951
long	-10.1954
▁reward	-10.1962
▁gi	-10.1971
▁virtue	-10.1981
▁fo	-10.1981
▁maiden	-10.1987
▁final	-10.1988
▁nodded	-10.199
hold	-10.1998
▁fourth	-10.2002
▁Vi	-10.2004
▁luck	-10.2007
▁tear	-10.2013
▁affair	-10.2018
▁incident	-10.2022
▁Badger	-10.2022
▁clever	-10.2022
▁steam	-10.2022
▁lonely	-10.2032
▁attend	-10.2038
▁win	-10.2039
▁owner	-10.2047
▁anti	-10.2054
▁commanded	-10.2055
can	-10.2059
▁China	-10.2059
▁triumph	-10.206
▁extent	-10.2063
▁shone	-10.2065
▁Allah	-10.2065
▁separate	-10.2067
thing	-10.2081
▁peril	-10.2085
▁limit	-10.2087
bar	-10.2095
▁exception	-10.21
▁treasure	-10.2104
▁yesterday	-10.2104
▁sentiment	-10.2104
▁remind	-10.2104
▁Bright	-10.2107
gate	-10.2121
▁sounded	-10.2132
▁Sha	-10.2135
▁Monkey	-10.2145
▁Nature	-10.2145
▁buried	-10.2145
▁rocks	-10.2146
▁rare	-10.2147
ING	-10.2148
▁match	-10.2153
▁teach	-10.2161
▁dig	-10.2162
▁stretch	-10.2171
▁dread	-10.2173
▁farmer	-10.2176
▁clouds	-10.2178
▁excellent	-10.2187
▁shelter	-10.2187
▁proceeded	-10.219
▁fro	-10.2199
▁physical	-10.2201
▁advanced	-10.2205
▁approached	-10.2208
▁Bra	-10.2208
▁El	-10.2219
▁Did	-10.2221
▁Europe	-10.2222
mmed	-10.2223
▁encounter	-10.2228
▁article	-10.2228
▁print	-10.2231
▁admitted	-10.2232
▁singing	-10.2237
▁active	-10.2241
▁pur	-10.225
ou	-10.2254
<	-10.2267
▁resist	-10.2269
▁burden	-10.227
▁mystery	-10.227
dom	-10.2271
▁member	-10.2274
▁comfortable	-10.2277
▁feelings	-10.2286
▁beard	-10.229
▁hunting	-10.2295
▁desert	-10.2297
cho	-10.2299
▁dared	-10.2302
Nor	-10.2303
▁newspaper	-10.2312
▁suspicion	-10.2312
▁precious	-10.2312
▁pretend	-10.2312
▁angel	-10.2313
▁eleven	-10.2313
▁prefer	-10.2313
▁feast	-10.2313
▁gaze	-10.2317
▁concerned	-10.2323
▁X	-10.2325
▁Du	-10.2327
▁cru	-10.2338
▁glanced	-10.234
▁shining	-10.2354
▁swear	-10.2356
▁shalt	-10.2356
▁noon	-10.2358
▁ease	-10.2369
▁cases	-10.2382
▁practically	-10.2383
▁leap	-10.2384
▁chin	-10.2392
▁wave	-10.2392
▁choose	-10.2397
▁delicate	-10.2397
▁glorious	-10.2397
▁judgment	-10.2397
Meanwhile	-10.2397
oun	-10.2397
▁8	-10.2398
eous	-10.2401
▁papa	-10.2402
▁haste	-10.2408
▁term	-10.2409
▁pri	-10.2422
▁Division	-10.2439
▁Estates	-10.2439
▁unusual	-10.2439
▁rolled	-10.2441
▁bearing	-10.2448
▁brow	-10.2454
▁rid	-10.246
▁Pro	-10.2462
most	-10.2463
▁union	-10.2474
du	-10.2474
Only	-10.2478
ification	-10.2481
▁liberty	-10.2482
▁debt	-10.2483
▁fled	-10.2491
▁lad	-10.2491
▁sooner	-10.2498
▁chosen	-10.25
▁boo	-10.2501
▁ev	-10.2504
rry	-10.2513
▁Phil	-10.2525
▁trembling	-10.2525
▁spoil	-10.2525
▁stroke	-10.2525
▁election	-10.2531
▁colored	-10.2545
▁pal	-10.2556
IT	-10.2557
▁author	-10.2562
▁forgot	-10.2568
▁appeal	-10.2568
▁horrible	-10.2568
▁brush	-10.2568
▁ni	-10.2571
▁preach	-10.2571
▁interested	-10.2578
▁lighted	-10.2605
▁absence	-10.2611
▁gentlemen	-10.2615
▁giant	-10.2616
▁pit	-10.2617
▁helped	-10.2622
▁Cor	-10.2624
▁divided	-10.2625
▁page	-10.2631
ev	-10.2636
▁nu	-10.2637
▁destroy	-10.2641
▁treated	-10.2641
▁buffaloes	-10.2647
▁correct	-10.2655
▁brilliant	-10.2655
▁council	-10.2655
▁curiosity	-10.2655
▁policy	-10.2655
▁striking	-10.2655
▁forehead	-10.2655
▁trace	-10.2657
▁remarkable	-10.2661
▁continue	-10.2661
▁excited	-10.2664
▁immediate	-10.2664
▁realized	-10.2681
▁voices	-10.2689
▁stands	-10.2698
▁Ainslie	-10.2698
▁arose	-10.27
fus	-10.2704
▁bay	-10.2707
▁forever	-10.2708
▁Pri	-10.2717
▁climb	-10.2729
▁aim	-10.2729
▁pet	-10.2734
▁leaf	-10.2742
▁flood	-10.2742
▁northern	-10.2742
▁observe	-10.2749
▁rang	-10.2749
▁eating	-10.2754
Can	-10.2756
▁cheek	-10.2757
▁names	-10.2762
mat	-10.278
▁Forsyte	-10.2786
▁swept	-10.2786
▁credit	-10.2786
▁arrow	-10.2787
▁ashamed	-10.2787
▁stories	-10.2788
▁gradually	-10.2794
▁lit	-10.2826
▁grief	-10.2831
#	-10.2831
▁singular	-10.2831
▁Mozart	-10.2838
mme	-10.284
work	-10.2844
▁concluded	-10.2844
ancy	-10.285
AT	-10.2861
right	-10.2862
▁coffee	-10.2875
▁principal	-10.2875
▁revolution	-10.2875
▁smell	-10.2875
▁owe	-10.2897
▁corn	-10.2897
▁si	-10.29
ize	-10.2904
▁Ta	-10.2907
▁alarm	-10.2907
▁12	-10.2912
▁load	-10.2913
▁endure	-10.2918
▁science	-10.292
▁sweep	-10.292
▁regret	-10.292
▁reign	-10.2921
▁burned	-10.2922
▁laughter	-10.2928
▁pause	-10.2929
▁scar	-10.293
Just	-10.2934
▁wet	-10.2937
▁armed	-10.2951
▁planet	-10.2953
▁sunshine	-10.2965
▁foolish	-10.2969
▁Roscoe	-10.2969
atory	-10.297
▁charming	-10.297
▁agent	-10.2972
▁market	-10.2975
▁Wal	-10.2976
▁suggest	-10.2983
▁relation	-10.2988
▁ere	-10.299
▁Perhaps	-10.3006
▁interval	-10.301
▁sale	-10.301
▁steel	-10.301
▁duties	-10.3011
▁Harris	-10.3011
rum	-10.3011
▁Solomon	-10.3016
▁highly	-10.3026
▁pace	-10.3028
▁careful	-10.3038
La	-10.3043
▁instantly	-10.3053
Le	-10.3053
▁roar	-10.3054
▁energy	-10.3055
▁tied	-10.306
ark	-10.306
▁closely	-10.3063
▁fever	-10.3064
head	-10.3076
bit	-10.3087
▁Lionel	-10.31
▁nerve	-10.31
▁magic	-10.31
▁Congress	-10.3101
▁stern	-10.3102
▁distress	-10.3103
han	-10.3107
▁Gu	-10.311
▁anyone	-10.3132
▁heap	-10.3137
▁crying	-10.3142
▁Assingham	-10.3146
▁surrounded	-10.3146
▁flung	-10.3148
▁hearing	-10.3148
▁mood	-10.3148
▁fan	-10.3154
▁arch	-10.3168
▁column	-10.3192
▁conclusion	-10.3192
▁deserve	-10.3192
▁expedition	-10.3192
▁wisdom	-10.3192
▁root	-10.3195
▁extreme	-10.3204
▁troubled	-10.3207
▁towns	-10.3215
▁guests	-10.3219
▁apart	-10.3223
oon	-10.3234
▁principles	-10.3234
Presently	-10.3238
▁arrival	-10.3238
▁definite	-10.3238
▁instrument	-10.3238
▁wholly	-10.324
▁ven	-10.3241
▁gay	-10.325
Still	-10.3258
▁useful	-10.3264
they	-10.3267
▁presented	-10.3271
sses	-10.3271
▁knock	-10.3273
▁test	-10.3279
▁Parliament	-10.3284
▁conscience	-10.3284
▁July	-10.3296
▁constant	-10.3296
▁wing	-10.3298
▁severe	-10.3304
▁perceived	-10.3306
▁deliver	-10.332
▁lesson	-10.3327
▁Have	-10.333
▁observation	-10.3331
▁intense	-10.3331
▁papers	-10.3333
▁deck	-10.3334
▁sore	-10.3336
▁forms	-10.3337
elle	-10.3337
▁breaking	-10.334
▁charm	-10.3343
▁thoroughly	-10.3347
▁relations	-10.3354
▁possess	-10.3354
▁beam	-10.3367
▁Ni	-10.337
▁Louisbourg	-10.3377
▁labour	-10.3377
▁prairie	-10.3377
▁sympathy	-10.3377
▁Jack	-10.3381
▁painful	-10.3386
▁quarters	-10.3386
▁previous	-10.339
cal	-10.3394
ories	-10.3395
ga	-10.34
place	-10.3402
mar	-10.3406
▁lust	-10.3406
▁bringing	-10.3411
God	-10.3413
▁render	-10.3418
▁Just	-10.3421
▁Princess	-10.3423
▁accustomed	-10.3424
▁explanation	-10.3424
▁student	-10.3424
▁unfortunate	-10.3424
▁gown	-10.3425
▁idle	-10.3425
▁slipped	-10.3425
▁removed	-10.3425
▁informed	-10.3426
▁painted	-10.3428
▁weary	-10.3429
▁pounds	-10.3431
▁stronger	-10.3432
▁card	-10.3436
▁signs	-10.3441
▁fellows	-10.3447
▁prison	-10.3451
pper	-10.3452
▁sounds	-10.3461
▁contain	-10.3461
▁consent	-10.3462
▁eyed	-10.3462
▁eagerly	-10.3465
▁sovereign	-10.3469
▁total	-10.3471
▁Weldon	-10.3472
▁division	-10.3472
▁prospect	-10.3474
za	-10.3475
▁listening	-10.3476
▁Agamemnon	-10.348
▁string	-10.3481
wood	-10.3489
ium	-10.3495
▁frequently	-10.3496
▁obtain	-10.3509
▁escaped	-10.3509
▁choice	-10.3519
▁furniture	-10.3519
▁furious	-10.3521
LL	-10.3524
▁Marija	-10.3524
▁desired	-10.3525
▁fence	-10.353
ius	-10.3533
▁wooden	-10.3539
▁fearful	-10.3541
▁super	-10.3542
▁described	-10.3551
▁op	-10.3551
▁scream	-10.3557
▁soil	-10.3566
▁steal	-10.3567
▁Ka	-10.3567
▁capable	-10.3577
▁te	-10.3606
▁oh	-10.3606
▁Green	-10.3615
▁poison	-10.3615
▁affection	-10.3617
▁Ona	-10.3619
▁obtained	-10.3625
▁swift	-10.3628
ttle	-10.3645
▁Will	-10.3657
▁preparation	-10.3663
▁steep	-10.3663
ull	-10.3664
▁City	-10.3668
▁destroyed	-10.3678
▁Land	-10.3682
▁squa	-10.3683
▁wedding	-10.369
▁tiny	-10.3691
▁spirits	-10.3693
▁Ri	-10.3697
▁Far	-10.3699
▁push	-10.3705
▁jewel	-10.3711
▁tramp	-10.3711
▁event	-10.3713
▁disc	-10.3715
▁Good	-10.3723
▁announced	-10.3727
▁14	-10.3729
▁stir	-10.3729
▁cabin	-10.3731
▁ideas	-10.3734
lia	-10.374
RO	-10.3752
▁October	-10.3759
▁exchange	-10.3759
▁stadholder	-10.3759
▁saddle	-10.376
other	-10.3762
▁sank	-10.3766
▁insist	-10.3783
▁Anne	-10.3784
Without	-10.3785
▁min	-10.379
itude	-10.3795
▁divine	-10.3808
▁thread	-10.3809
▁humble	-10.3809
▁centre	-10.381
▁managed	-10.3812
▁candle	-10.3812
▁ideal	-10.3814
▁Thus	-10.3814
▁Sc	-10.3824
▁useless	-10.3828
▁lion	-10.3842
▁holy	-10.3849
▁Lu	-10.385
▁Un	-10.3856
▁infinite	-10.3857
▁costume	-10.3858
▁rude	-10.3858
▁commander	-10.386
▁dining	-10.3862
▁cart	-10.3865
▁pink	-10.3867
Two	-10.3877
ED	-10.3878
try	-10.39
▁railroad	-10.3906
▁fetch	-10.3907
▁Grant	-10.3907
▁sailor	-10.391
About	-10.391
comp	-10.3913
▁retain	-10.3919
▁trial	-10.3921
Many	-10.3927
▁handed	-10.3929
▁Col	-10.3937
▁feared	-10.3938
▁discuss	-10.3945
▁Thou	-10.3956
▁expense	-10.3956
▁partly	-10.3958
▁await	-10.3959
▁older	-10.3961
▁kindness	-10.3967
▁sooth	-10.3982
▁consideration	-10.3983
▁accomplished	-10.3989
vin	-10.3993
▁goin	-10.3993
▁gained	-10.3996
▁Ra	-10.4001
▁accompanied	-10.4006
▁display	-10.4006
▁domestic	-10.4006
▁proportion	-10.4006
▁preserve	-10.4006
▁straw	-10.4006
▁polite	-10.4006
▁bones	-10.4007
▁expressed	-10.4007
▁agree	-10.401
lay	-10.4011
US	-10.4014
▁protection	-10.4014
▁plans	-10.4026
▁bark	-10.4037
▁mounted	-10.4045
▁disturb	-10.4048
▁proposal	-10.4056
▁cliff	-10.4056
▁quiver	-10.4056
▁spake	-10.4056
Nevertheless	-10.4056
▁select	-10.4056
▁vessel	-10.4057
Or	-10.4064
▁hated	-10.4068
▁thousands	-10.4069
▁bullet	-10.407
▁becoming	-10.4077
▁subjects	-10.4081
was	-10.4083
▁numbers	-10.4101
▁sufficiently	-10.4103
▁victim	-10.4106
▁worry	-10.4106
▁title	-10.4106
▁swung	-10.4107
▁deem	-10.4109
Dur	-10.4111
▁warning	-10.4115
▁March	-10.4116
▁hunger	-10.4117
▁rendered	-10.4117
▁sigh	-10.4129
self	-10.4139
▁Him	-10.4139
ov	-10.4148
▁institution	-10.4149
▁eggs	-10.4149
▁administration	-10.4156
▁magnificent	-10.4156
▁seldom	-10.4156
▁volume	-10.4156
▁betray	-10.4157
▁feed	-10.4158
ville	-10.4163
▁Indian	-10.4167
▁din	-10.4168
bon	-10.4171
▁center	-10.4171
▁practical	-10.4173
▁Ex	-10.4176
Jurgis	-10.4176
▁arise	-10.4185
ope	-10.4202
▁anxiety	-10.4207
▁jealous	-10.4207
▁engine	-10.4207
▁Spain	-10.4208
▁pardon	-10.4208
▁apple	-10.421
▁permitted	-10.421
▁mission	-10.4217
▁yell	-10.422
wo	-10.4221
▁doorway	-10.4225
▁actual	-10.4226
▁rat	-10.4229
itch	-10.4236
▁captured	-10.4241
ax	-10.4252
▁confusion	-10.4258
▁countenance	-10.4258
▁privilege	-10.4258
▁throne	-10.4258
▁cousin	-10.4258
▁Christmas	-10.4258
▁novel	-10.4259
▁elder	-10.4262
▁insisted	-10.4268
far	-10.4273
ky	-10.4276
▁reality	-10.4284
▁younger	-10.429
▁setting	-10.4292
▁someone	-10.4297
fall	-10.4298
▁product	-10.4302
▁repeat	-10.4304
▁Indians	-10.4306
Once	-10.4308
▁garrison	-10.431
▁neglect	-10.431
▁innocent	-10.431
▁plum	-10.4311
▁amongst	-10.4315
▁settle	-10.4319
▁discussion	-10.4321
▁sang	-10.433
ector	-10.4344
▁Louis	-10.4347
▁leader	-10.4359
▁Amsterdam	-10.4361
▁species	-10.4361
▁tremendous	-10.4361
▁unexpected	-10.4361
▁universe	-10.4361
▁Button	-10.4365
uit	-10.4374
▁statement	-10.4375
▁sleeping	-10.4384
▁pitch	-10.4387
▁sheet	-10.4389
▁shadows	-10.439
Old	-10.4392
▁Are	-10.4399
▁jo	-10.4407
▁philosophy	-10.4413
▁unconscious	-10.4413
▁fulfil	-10.4413
▁dish	-10.4425
▁suggestion	-10.4429
▁remains	-10.4429
▁git	-10.4431
▁Van	-10.4432
▁Pi	-10.4433
▁exact	-10.4436
▁trap	-10.444
cor	-10.4459
▁birth	-10.4464
▁Richmond	-10.4465
▁benefit	-10.4465
▁enormous	-10.4465
▁scheme	-10.4465
▁shriek	-10.4465
▁Flint	-10.4465
▁rifle	-10.4465
See	-10.4465
▁Per	-10.4469
▁cities	-10.4474
▁Bu	-10.4479
▁counter	-10.4484
▁slope	-10.4485
▁damn	-10.449
Tom	-10.4498
▁provided	-10.45
Ho	-10.4502
▁appears	-10.4506
▁gazed	-10.4511
▁vessels	-10.4516
▁Greek	-10.4517
▁cottage	-10.4517
▁intelligence	-10.4517
▁exhibit	-10.4517
ology	-10.4517
▁convention	-10.4518
▁spell	-10.4518
▁seeming	-10.4518
▁safety	-10.4524
▁reflection	-10.4527
▁nest	-10.4529
just	-10.4533
▁increase	-10.4533
▁begged	-10.4536
tering	-10.4538
eb	-10.4541
▁cave	-10.4543
▁hum	-10.4547
▁peer	-10.4564
▁deeply	-10.4569
▁erect	-10.4571
▁assert	-10.4575
put	-10.4576
▁Lee	-10.4579
▁trip	-10.4587
▁created	-10.4589
▁objection	-10.4599
▁notion	-10.4609
▁enjoyed	-10.4618
▁Jane	-10.4619
▁utterly	-10.4619
▁Din	-10.4621
▁Vertrees	-10.4623
▁miserable	-10.4623
▁wagon	-10.4623
▁estate	-10.4623
▁contained	-10.4635
field	-10.4645
Toby	-10.4646
▁earnest	-10.4648
▁wandering	-10.4648
ridge	-10.4653
▁eke	-10.4657
▁sailed	-10.4659
▁crowded	-10.4663
▁entertain	-10.4667
▁waves	-10.467
▁intent	-10.4671
▁slightly	-10.4672
▁proceed	-10.4673
▁threat	-10.4674
▁essential	-10.4676
▁generation	-10.4676
▁patience	-10.4676
Certainly	-10.4676
▁dragged	-10.4676
▁September	-10.4679
▁branches	-10.4686
▁friendship	-10.4687
▁stayed	-10.4713
▁genius	-10.473
▁glimpse	-10.473
▁numerous	-10.473
▁crept	-10.473
▁depth	-10.473
▁veil	-10.473
▁Ireland	-10.473
▁Aino	-10.473
▁Mount	-10.4736
▁beaten	-10.4743
▁composed	-10.4747
▁Bar	-10.4767
▁pictures	-10.4772
▁20	-10.4776
▁withdraw	-10.4783
▁clerk	-10.4783
▁utmost	-10.4783
▁Only	-10.4788
▁dogs	-10.479
▁smaller	-10.4797
▁marched	-10.4797
▁lace	-10.4805
▁Mu	-10.4806
▁rope	-10.4822
ome	-10.4828
▁Su	-10.4829
▁writer	-10.4832
igh	-10.4835
▁Come	-10.4836
▁January	-10.4837
▁midnight	-10.4837
▁wives	-10.4838
▁boots	-10.4839
▁Duke	-10.484
▁swell	-10.4841
▁Josephine	-10.4842
▁Sydney	-10.4846
▁urged	-10.4855
▁guest	-10.4859
▁plainly	-10.4868
▁sharply	-10.4877
▁deny	-10.4887
▁belonged	-10.489
▁Nan	-10.4891
▁Wharton	-10.4892
▁profound	-10.4892
▁provision	-10.4892
▁spectacle	-10.4892
▁consult	-10.4892
▁loving	-10.4892
▁jumped	-10.4893
▁economic	-10.4898
▁devoted	-10.4903
▁San	-10.4906
rid	-10.4906
▁prisoners	-10.4907
Lo	-10.4915
▁Fi	-10.4929
▁succeed	-10.4943
▁Virginia	-10.4946
▁quality	-10.4946
▁balance	-10.4946
▁border	-10.4946
▁belief	-10.4946
Through	-10.4946
▁shift	-10.4946
▁oppress	-10.4947
▁mortal	-10.4947
▁funny	-10.4948
▁connection	-10.4948
▁scale	-10.4949
Co	-10.495
▁minor	-10.4954
Something	-10.4956
▁burn	-10.4959
▁reform	-10.4959
▁killing	-10.4959
▁7	-10.4962
ux	-10.4964
▁vanished	-10.4968
▁hopeless	-10.4972
▁details	-10.4975
▁represent	-10.4983
▁Grand	-10.4987
▁Par	-10.4996
▁eternal	-10.5001
▁resolution	-10.5001
▁visible	-10.5001
▁breed	-10.5002
▁dispute	-10.5002
▁kick	-10.5003
▁dragon	-10.5005
▁learning	-10.5007
line	-10.5013
▁provide	-10.502
▁detail	-10.5028
▁Love	-10.5029
Will	-10.5029
▁treaty	-10.5031
▁locked	-10.5031
▁roll	-10.5032
▁bowed	-10.5035
▁granted	-10.5047
▁boiled	-10.5052
Illustration	-10.5057
▁dignity	-10.5057
▁Street	-10.5057
▁eighteen	-10.5057
▁stamp	-10.5057
▁spark	-10.5058
▁driver	-10.5062
▁strongly	-10.5076
▁leaped	-10.5077
▁doubtless	-10.5077
Con	-10.5082
room	-10.5084
▁introduced	-10.5086
▁inches	-10.5089
▁collect	-10.51
▁leaning	-10.5105
ene	-10.5106
▁tax	-10.5108
▁Inspector	-10.5112
▁fortunate	-10.5112
▁poverty	-10.5112
▁spiritual	-10.5114
▁dressing	-10.5119
▁sink	-10.5122
▁distinct	-10.5123
▁scattered	-10.5126
▁convinced	-10.5126
▁oil	-10.5128
▁Car	-10.5135
▁alike	-10.5136
▁showing	-10.515
▁anon	-10.5165
Suddenly	-10.5168
▁breeze	-10.5168
▁voyage	-10.5168
▁indulge	-10.5168
▁ocean	-10.5168
▁oath	-10.5168
▁insult	-10.5169
▁bottle	-10.5169
▁interfere	-10.5169
▁hesitated	-10.518
▁invited	-10.5181
▁knocked	-10.5181
tell	-10.5186
▁capture	-10.5187
where	-10.5206
▁employed	-10.5212
▁check	-10.5223
▁Sibyl	-10.5224
▁unhappy	-10.5224
▁grateful	-10.5224
▁jump	-10.5225
▁misery	-10.5226
▁scorn	-10.5226
▁Harper	-10.5226
▁assistance	-10.5226
▁directed	-10.5227
▁rested	-10.5237
IV	-10.5241
▁thanks	-10.5258
▁rent	-10.5264
▁drunk	-10.5275
▁protest	-10.528
▁dancing	-10.5281
▁phrase	-10.5281
▁cotton	-10.5281
▁convey	-10.5281
▁Court	-10.5281
▁style	-10.5282
▁clothing	-10.5283
run	-10.5285
▁crew	-10.5287
▁Bay	-10.5297
▁rail	-10.5311
▁departed	-10.5313
CH	-10.532
eign	-10.5332
bility	-10.5333
▁swallow	-10.5337
▁drank	-10.5337
▁shaking	-10.5339
▁mild	-10.5339
▁fox	-10.5339
▁wilt	-10.5341
▁Roman	-10.5349
ayland	-10.5356
▁9	-10.5359
However	-10.5373
▁wretched	-10.5374
▁hiding	-10.5386
▁delighted	-10.5391
▁cell	-10.5391
▁blossom	-10.5395
▁experiment	-10.5395
▁heavily	-10.5395
:—	-10.5396
▁hind	-10.5398
▁bench	-10.5403
▁First	-10.5415
▁issue	-10.5415
▁knee	-10.5429
nder	-10.5431
▁Two	-10.5433
▁blessed	-10.5438
▁branch	-10.5441
▁November	-10.5452
▁absurd	-10.5452
▁thrill	-10.5452
▁southern	-10.5452
▁compass	-10.5452
▁reported	-10.5453
▁threatened	-10.5453
▁hastily	-10.5455
▁neat	-10.5458
▁pig	-10.546
▁communication	-10.5461
▁apartment	-10.5466
more	-10.5468
▁Qu	-10.5468
▁Red	-10.5472
▁describe	-10.5473
▁seeking	-10.548
Tell	-10.5488
▁Wi	-10.5494
after	-10.5496
▁drinking	-10.55
▁char	-10.5504
▁supported	-10.5509
▁generous	-10.551
▁population	-10.551
▁valuable	-10.551
▁source	-10.551
▁representative	-10.5511
▁High	-10.5512
even	-10.5514
▁folks	-10.5517
▁signal	-10.5518
▁Ah	-10.5533
press	-10.5555
▁prevail	-10.5568
▁groan	-10.5568
▁characteristic	-10.5569
▁Hope	-10.5576
▁foe	-10.5577
▁Had	-10.5581
▁Pla	-10.559
▁careless	-10.5592
▁cheerful	-10.5597
▁uttered	-10.56
▁bush	-10.5622
Sir	-10.5625
▁wire	-10.5625
ô	-10.5626
▁satisfy	-10.5626
▁disposed	-10.5626
Upon	-10.5627
▁naked	-10.5628
▁reg	-10.5636
▁sixty	-10.5641
▁Ki	-10.5644
▁coal	-10.5646
▁cease	-10.565
▁understanding	-10.565
▁growth	-10.5653
which	-10.5654
take	-10.5663
▁seriously	-10.5664
▁impress	-10.5675
▁Frederick	-10.5685
▁tradition	-10.5685
▁siege	-10.5685
▁shirt	-10.5685
▁liberal	-10.5685
▁frown	-10.5685
▁conceal	-10.5687
▁pressure	-10.5689
▁agony	-10.569
Among	-10.5694
▁error	-10.5695
▁reduced	-10.5699
▁mock	-10.5702
▁evident	-10.571
▁cake	-10.5712
▁discovery	-10.5716
▁companions	-10.5726
▁torn	-10.5729
who	-10.5733
CE	-10.5735
Pete	-10.5739
▁Commandment	-10.5744
▁Pullet	-10.5744
▁February	-10.5744
▁Hercules	-10.5744
▁driving	-10.5744
▁independent	-10.5744
▁misfortune	-10.5744
▁resign	-10.5744
▁shield	-10.5744
▁earlier	-10.5744
▁woe	-10.5745
▁purple	-10.5746
bl	-10.5751
▁buildings	-10.5752
▁precisely	-10.5752
▁13	-10.5761
▁chill	-10.577
Take	-10.5773
▁reasonable	-10.5778
▁Park	-10.5784
▁permit	-10.5801
cluding	-10.5804
▁glitter	-10.5804
▁Edith	-10.5804
▁sixteen	-10.5804
▁carpet	-10.5804
▁stirred	-10.5806
▁linger	-10.5807
▁European	-10.5813
▁prisoner	-10.5814
▁shout	-10.5816
▁eaten	-10.5829
izing	-10.5847
▁wages	-10.5853
Was	-10.5854
▁punish	-10.5857
▁su	-10.5862
▁Winfield	-10.5864
▁stuck	-10.5864
▁thirst	-10.5864
▁Ellen	-10.5864
▁peasant	-10.5864
▁hint	-10.5868
▁maintain	-10.5868
▁invest	-10.5869
True	-10.5869
▁punishment	-10.5871
▁section	-10.5872
▁tip	-10.5873
▁weep	-10.5873
▁lightly	-10.5879
▁shortly	-10.5881
▁climbed	-10.5882
▁lean	-10.5908
▁gloom	-10.5908
vid	-10.5912
unk	-10.5924
▁basket	-10.5924
▁ignorant	-10.5924
▁hollow	-10.5924
▁Verver	-10.5924
▁countess	-10.5925
▁traveller	-10.5926
▁resistance	-10.5928
▁fix	-10.5933
Ar	-10.5934
▁Ye	-10.5942
▁chase	-10.5946
▁offend	-10.5946
▁imagined	-10.5947
▁Though	-10.5958
▁addressed	-10.5963
▁improve	-10.5972
▁bowl	-10.5974
...."	-10.5975
▁extended	-10.5975
▁Government	-10.5985
▁melancholy	-10.5985
▁intimate	-10.5985
▁crash	-10.5985
▁Roger	-10.5987
▁intend	-10.5992
▁startled	-10.5993
▁production	-10.5995
▁dirty	-10.5998
▁vice	-10.5999
have	-10.6006
▁fatal	-10.6007
▁joke	-10.6009
Maggie	-10.6015
▁developed	-10.6021
▁Son	-10.6022
▁metal	-10.6028
▁returning	-10.6045
▁destruction	-10.6046
▁leisure	-10.6046
▁relieved	-10.6046
▁reserve	-10.6046
spiration	-10.6046
▁defence	-10.6046
▁bride	-10.6046
▁motive	-10.6046
Sha	-10.6046
▁Such	-10.6052
▁staff	-10.6054
▁sighed	-10.6054
▁lap	-10.606
▁lightning	-10.606
uv	-10.6075
▁Ned	-10.6076
▁constantly	-10.6091
▁ham	-10.6092
▁maybe	-10.6097
liness	-10.6101
▁doctrine	-10.6107
▁handkerchief	-10.6107
▁current	-10.6107
▁restrain	-10.6109
▁series	-10.6109
▁madam	-10.6114
▁Gran	-10.6121
▁pool	-10.6121
▁assent	-10.6123
▁curl	-10.613
▁prompt	-10.6134
▁Nur	-10.614
▁Bur	-10.6142
istic	-10.6149
▁mid	-10.6151
▁handle	-10.6152
▁elected	-10.6154
▁borne	-10.6155
▁centuries	-10.6169
▁resource	-10.6169
▁universal	-10.6169
▁jail	-10.6169
▁sugar	-10.6169
▁conviction	-10.6172
▁flour	-10.6174
VE	-10.6185
▁approaching	-10.6192
Another	-10.6201
▁ridge	-10.6209
▁December	-10.6231
▁Weymouth	-10.6231
▁shudder	-10.6231
▁steadily	-10.6231
▁club	-10.6231
▁Uncle	-10.6231
▁grin	-10.6233
Finally	-10.6234
▁procession	-10.6248
▁oak	-10.6249
▁comment	-10.6249
ien	-10.6251
▁refuse	-10.6256
while	-10.626
Under	-10.6265
cut	-10.6266
▁merry	-10.6272
▁backward	-10.628
▁slip	-10.6293
▁beloved	-10.6293
▁annoy	-10.6294
▁Cap	-10.6294
▁disease	-10.6295
▁wool	-10.6296
▁wept	-10.6298
▁Which	-10.6308
▁decide	-10.6319
▁ram	-10.6321
▁distinctly	-10.6332
XX	-10.6336
ability	-10.6342
pose	-10.6344
▁Nothing	-10.6347
▁11	-10.6349
TER	-10.6354
▁enthusiasm	-10.6356
▁gesture	-10.6356
▁harbour	-10.6356
▁industry	-10.6356
▁literature	-10.6356
▁refuge	-10.6356
▁drown	-10.6356
▁coarse	-10.6356
▁hid	-10.6359
▁consum	-10.6361
▁murmur	-10.6362
▁difficulties	-10.6365
▁armies	-10.6372
▁En	-10.6374
▁constitution	-10.6381
▁boil	-10.6389
said	-10.6397
▁kin	-10.6407
▁boss	-10.6416
▁clo	-10.6417
▁deeper	-10.6418
▁Canadian	-10.642
▁bishop	-10.642
▁farewell	-10.642
▁manifest	-10.642
▁exceedingly	-10.642
▁haunt	-10.642
▁behold	-10.6425
▁operation	-10.6429
▁sport	-10.6432
mus	-10.6438
▁Sch	-10.6441
read	-10.6442
▁attended	-10.6445
▁properly	-10.6446
▁mal	-10.6447
Though	-10.6456
▁pea	-10.6458
▁quit	-10.6464
▁extremely	-10.6467
▁prop	-10.6469
ink	-10.6481
▁contempt	-10.6483
▁Richard	-10.6483
▁Temple	-10.6483
▁upstairs	-10.6483
▁access	-10.6483
▁renew	-10.6483
▁screen	-10.6484
▁silly	-10.6484
▁beach	-10.6486
▁wishes	-10.6487
▁route	-10.6487
cla	-10.6496
▁features	-10.6504
did	-10.6507
▁Si	-10.651
▁absolute	-10.6513
▁promptly	-10.6519
Poor	-10.652
▁acted	-10.6523
▁separated	-10.6541
▁occur	-10.6546
▁reproach	-10.6547
▁Caliph	-10.6547
▁messenger	-10.6547
▁mirror	-10.6547
▁sleeve	-10.6547
▁snatch	-10.6547
▁violence	-10.6547
▁gracious	-10.6547
▁experienced	-10.6548
▁torture	-10.6548
▁creep	-10.6549
▁wax	-10.6551
▁slightest	-10.6555
Other	-10.6563
▁attempted	-10.6572
▁spur	-10.6572
Hu	-10.6573
ular	-10.6573
acious	-10.6575
Sometimes	-10.6581
Miss	-10.6582
▁completed	-10.6586
▁distinguished	-10.6588
▁govern	-10.659
▁lately	-10.6595
▁blank	-10.6598
▁Majesty	-10.6612
▁Prudence	-10.6612
▁clutch	-10.6612
▁crawl	-10.6612
▁criminal	-10.6612
▁Castle	-10.6612
▁monster	-10.6612
▁Johnnie	-10.6612
▁steady	-10.6612
▁aloud	-10.6612
imp	-10.6614
▁detective	-10.6614
▁Arab	-10.6615
▁Port	-10.6618
▁cabinet	-10.6618
▁beasts	-10.6623
▁decent	-10.6625
▁inner	-10.6637
till	-10.6651
▁issued	-10.6654
▁dwelling	-10.666
▁aspect	-10.6673
▁mourn	-10.6675
▁patriot	-10.6677
▁surrounding	-10.6677
▁qualities	-10.6677
▁recommend	-10.6677
▁Bahr	-10.6677
▁assist	-10.6677
▁lunch	-10.6677
▁moreover	-10.6677
▁whip	-10.6679
▁slid	-10.668
▁Mag	-10.6681
▁tide	-10.6689
▁frequent	-10.6708
▁YOU	-10.6715
▁swiftly	-10.6723
▁Spaniards	-10.673
▁waved	-10.6734
Mary	-10.6737
ney	-10.674
▁neighbour	-10.6742
▁Bertrade	-10.6742
▁deliberate	-10.6742
▁execution	-10.6742
▁pursuit	-10.6742
▁beef	-10.6745
▁dat	-10.6755
utter	-10.6759
HE	-10.6762
▁reject	-10.6766
umble	-10.6769
▁retired	-10.6771
▁closer	-10.6771
▁adopted	-10.6772
Alas	-10.6773
▁dreamed	-10.6776
▁dive	-10.6795
zi	-10.6795
▁Sam	-10.6795
▁delightful	-10.6807
People	-10.6808
▁endeavour	-10.6808
▁sacred	-10.6808
▁supreme	-10.6808
▁poured	-10.6808
▁departure	-10.6809
▁pearl	-10.6811
▁development	-10.6813
▁patch	-10.6813
▁leaders	-10.6814
ette	-10.6815
▁cries	-10.6816
▁collection	-10.682
▁perish	-10.6824
▁succession	-10.6828
▁Earl	-10.6837
Having	-10.6839
hear	-10.6839
▁pond	-10.6841
▁seal	-10.6847
▁nearest	-10.6852
east	-10.6852
ison	-10.6855
▁tempt	-10.6866
▁murmured	-10.6869
▁embrace	-10.6874
▁impulse	-10.6874
▁muttered	-10.6874
▁absent	-10.6874
▁Earth	-10.6874
▁shiver	-10.6874
▁desk	-10.6876
▁represented	-10.6877
▁White	-10.6881
▁Claude	-10.6882
▁sex	-10.6898
50	-10.6899
▁assumed	-10.69
▁venture	-10.6904
▁apparent	-10.6907
▁doth	-10.6907
turn	-10.6909
Un	-10.6911
▁net	-10.6913
▁remaining	-10.6913
▁sup	-10.6917
▁III	-10.693
▁operations	-10.6936
▁Look	-10.6938
▁inclined	-10.6941
▁platform	-10.6941
▁quantity	-10.6941
▁whirl	-10.6941
▁snapped	-10.6941
▁pepper	-10.6942
▁Jason	-10.6943
▁meanwhile	-10.6943
▁flank	-10.6943
▁blade	-10.6946
Although	-10.6947
▁attached	-10.697
Everything	-10.6986
▁Ben	-10.6996
▁plate	-10.7007
▁Secretary	-10.7008
▁admiration	-10.7008
▁exquisite	-10.7008
▁deceive	-10.7008
▁despise	-10.7008
▁subtle	-10.7008
▁array	-10.7009
▁sunset	-10.7009
▁honey	-10.7009
▁hastened	-10.7014
▁resumed	-10.7018
▁fame	-10.7021
▁blanket	-10.7023
▁halt	-10.7027
▁gang	-10.7032
▁plac	-10.705
▁robes	-10.7053
▁performed	-10.7059
▁instruct	-10.707
will	-10.7071
▁mistaken	-10.7072
ago	-10.7074
▁visited	-10.7074
▁Traveler	-10.7076
▁horizon	-10.7076
▁intelligent	-10.7076
▁vigorous	-10.7076
▁bundle	-10.7076
▁whistle	-10.7076
▁ornament	-10.7076
▁ugly	-10.7076
▁agreeable	-10.7081
Next	-10.7081
▁Hepsey	-10.7083
▁extend	-10.7086
▁accord	-10.7091
▁weakness	-10.7097
▁realize	-10.7109
▁attacked	-10.7109
▁rust	-10.7114
▁recognized	-10.7115
▁earnestly	-10.7119
18	-10.7127
▁seize	-10.7129
▁paint	-10.7137
▁plea	-10.714
▁Illinois	-10.7144
▁Zeeland	-10.7144
▁industrial	-10.7144
▁thirteen	-10.7144
▁Lindon	-10.7144
▁harsh	-10.7144
▁slain	-10.7144
▁collar	-10.7144
▁grandfather	-10.7144
▁Southern	-10.7144
ION	-10.7144
▁countries	-10.7146
▁tend	-10.7149
▁waist	-10.7152
▁disappear	-10.7154
fl	-10.7158
▁delivered	-10.716
▁limbs	-10.7169
▁Three	-10.7174
gress	-10.7183
▁classes	-10.7186
▁verse	-10.7188
▁curse	-10.7195
▁Before	-10.7196
▁signed	-10.7203
▁concealed	-10.7211
▁proceeding	-10.7211
▁chicken	-10.7212
▁families	-10.7212
▁ignorance	-10.7212
▁increasing	-10.7212
▁bosom	-10.7212
Ch	-10.7213
▁sweat	-10.7213
▁aroused	-10.7214
III	-10.7216
▁bond	-10.7217
▁merit	-10.7219
▁undertake	-10.7219
▁acquainted	-10.7221
▁greet	-10.7224
▁whence	-10.7239
▁pursue	-10.7244
▁counted	-10.7245
▁chose	-10.7253
▁reader	-10.7254
▁recent	-10.7259
▁Day	-10.7265
▁safely	-10.7271
▁hospital	-10.7276
▁achieve	-10.7281
▁feeble	-10.7281
▁inhabitants	-10.7281
▁leather	-10.7281
▁lieutenant	-10.7281
▁perplex	-10.7281
▁sensation	-10.7281
▁remote	-10.7281
▁moonlight	-10.7283
▁committed	-10.7284
▁spear	-10.7285
▁grant	-10.7293
▁continually	-10.7298
▁fog	-10.7307
ement	-10.7313
▁restless	-10.7316
Three	-10.7319
Since	-10.732
▁beating	-10.732
▁opposed	-10.7321
▁pole	-10.7322
▁Our	-10.7333
ought	-10.734
▁foreigner	-10.7344
▁stare	-10.7345
▁darling	-10.735
▁fourteen	-10.735
▁rival	-10.735
▁Madame	-10.7351
▁clad	-10.7351
▁neighborhood	-10.7352
▁authorities	-10.7352
▁beggar	-10.7353
▁Gaul	-10.7356
▁wail	-10.7361
though	-10.7364
ford	-10.7374
▁gather	-10.738
▁Tu	-10.7388
Therefore	-10.7389
▁fed	-10.7396
▁flee	-10.7399
▁lash	-10.7401
▁wearing	-10.7408
▁despatch	-10.742
▁contrast	-10.742
▁abroad	-10.742
▁dried	-10.7421
▁robber	-10.7422
▁humour	-10.7422
▁forbid	-10.7423
▁weapons	-10.7425
▁joint	-10.743
▁dwell	-10.744
▁cared	-10.7447
▁comrades	-10.7451
▁exhausted	-10.7453
Would	-10.746
▁gas	-10.7479
▁rolling	-10.7488
▁Chicago	-10.7491
▁commission	-10.7491
▁skirt	-10.7491
▁variety	-10.7491
▁wrath	-10.7491
▁Fairy	-10.7491
▁vital	-10.7492
▁robe	-10.7492
▁treatment	-10.7498
▁recover	-10.7504
▁instructions	-10.7506
▁hut	-10.7507
Wait	-10.7516
▁scent	-10.7517
▁secured	-10.7522
▁wandered	-10.7528
▁Republic	-10.7552
▁reflect	-10.7562
▁Admiral	-10.7562
▁piano	-10.7562
▁Witt	-10.7564
▁community	-10.7565
▁humor	-10.7572
▁attract	-10.7572
▁Bear	-10.7586
▁citizens	-10.7595
▁gall	-10.7596
Little	-10.7602
▁summoned	-10.7614
▁tar	-10.7617
▁graceful	-10.7625
▁elbow	-10.7633
▁enterprise	-10.7633
▁gazing	-10.7633
▁republic	-10.7633
▁Jesus	-10.7633
▁Missouri	-10.7633
▁smart	-10.7633
▁Saint	-10.7633
▁hammer	-10.7634
▁chapter	-10.764
▁riding	-10.7647
▁washed	-10.7647
▁suspect	-10.7648
then	-10.7658
▁sew	-10.7659
▁feathers	-10.7665
▁declare	-10.7668
▁etc	-10.7668
▁comrade	-10.7673
▁furnished	-10.7679
▁descended	-10.769
▁missed	-10.7699
▁reaching	-10.7701
▁league	-10.7705
▁politics	-10.7705
▁residence	-10.7705
▁slaughter	-10.7705
▁changing	-10.7705
▁unwilling	-10.7705
▁release	-10.7705
Vienna	-10.7705
▁faded	-10.7706
▁lawyer	-10.7706
▁tumble	-10.7707
▁gallant	-10.7708
▁prize	-10.7708
▁scrap	-10.7708
▁score	-10.771
▁Once	-10.7711
▁justified	-10.7723
▁AND	-10.7725
avi	-10.7728
pho	-10.7729
peration	-10.7734
▁ability	-10.7738
▁amid	-10.7743
▁consisted	-10.7747
▁artist	-10.7747
▁sending	-10.7753
▁cigar	-10.7777
▁STORY	-10.7778
▁autumn	-10.7778
▁gratitude	-10.7778
▁possibility	-10.7778
▁Fanny	-10.7778
▁reputation	-10.7778
▁applied	-10.7778
▁stoop	-10.7778
▁central	-10.7779
▁despite	-10.7779
▁unjust	-10.7787
▁descend	-10.7793
▁doom	-10.7794
▁connected	-10.7797
▁positively	-10.7807
▁danced	-10.7809
▁legal	-10.7812
▁weigh	-10.7813
▁fury	-10.7816
▁charged	-10.782
▁palm	-10.782
▁flatter	-10.7823
▁origin	-10.7827
bro	-10.7839
▁armor	-10.7842
▁Emperor	-10.7851
▁astonished	-10.7851
▁atmosphere	-10.7851
▁candidate	-10.7851
▁contract	-10.7851
▁overwhelm	-10.7851
▁perfume	-10.7851
▁powder	-10.7851
▁nevertheless	-10.7851
▁warrior	-10.7851
▁altar	-10.7851
▁rub	-10.7852
▁wrap	-10.7853
▁department	-10.786
▁fitted	-10.7862
Dear	-10.7865
▁rice	-10.7866
▁deserted	-10.7878
▁Like	-10.7882
▁occasionally	-10.7883
▁ruined	-10.7885
▁mount	-10.7893
▁contented	-10.7895
▁interior	-10.7902
▁employ	-10.7903
master	-10.7904
▁More	-10.7923
▁proclamation	-10.7924
▁slender	-10.7924
▁Fox	-10.7924
▁pillow	-10.7924
▁injustice	-10.7924
▁summit	-10.7924
▁stagger	-10.7924
▁Royal	-10.7924
▁blew	-10.7924
▁donkey	-10.7924
▁compared	-10.7924
▁jerk	-10.7925
▁reference	-10.7926
▁bedroom	-10.7927
▁dusk	-10.7928
Pro	-10.793
▁parish	-10.7931
▁seventy	-10.7935
omp	-10.7936
▁anyhow	-10.7949
▁Sak	-10.7951
▁Rose	-10.7952
▁employer	-10.7955
▁risen	-10.7958
▁Germany	-10.7978
▁firmly	-10.7997
▁Philadelphia	-10.7998
▁complex	-10.7998
▁conflict	-10.7998
▁exceed	-10.7998
▁craft	-10.7998
▁flutter	-10.8
▁marble	-10.8
▁containing	-10.8006
▁glare	-10.8008
▁guilty	-10.8009
▁offering	-10.801
▁accordingly	-10.8026
▁chiefly	-10.8036
▁cursed	-10.8043
▁Both	-10.8044
▁recovered	-10.8059
▁coloured	-10.8063
▁anyway	-10.8066
▁Company	-10.8073
▁awkward	-10.8073
▁confirm	-10.8073
▁specimen	-10.8073
▁studied	-10.8073
▁cheap	-10.8073
÷	-10.8073
▁excess	-10.8073
▁quaint	-10.8073
▁barrel	-10.8073
▁average	-10.8073
Had	-10.8075
▁orange	-10.8077
▁elect	-10.8077
▁description	-10.8077
▁foundation	-10.8079
▁grip	-10.808
▁fastened	-10.808
▁doubtful	-10.8084
▁shy	-10.8086
▁teacher	-10.8088
aria	-10.8089
▁thereby	-10.8095
▁published	-10.8101
▁gasped	-10.8109
▁pursued	-10.8113
Duane	-10.8117
▁feature	-10.8125
▁upward	-10.8126
▁victor	-10.813
▁corps	-10.8139
▁commit	-10.8145
▁assembled	-10.8148
▁female	-10.8148
▁contact	-10.8148
▁Death	-10.8148
▁porch	-10.8148
▁facing	-10.8149
▁ladder	-10.815
▁pensioners	-10.815
▁Ti	-10.8152
▁poetry	-10.8154
▁foul	-10.8154
▁losing	-10.8154
▁stout	-10.8155
▁crossing	-10.8158
▁nail	-10.8162
▁poem	-10.8166
▁recognised	-10.8172
Nay	-10.8183
dad	-10.8183
keeper	-10.8188
well	-10.8193
▁Star	-10.8195
▁goodness	-10.8202
▁profession	-10.8217
▁bless	-10.8221
Par	-10.8223
▁refresh	-10.8224
▁easier	-10.8224
▁immortal	-10.8224
▁incredible	-10.8224
▁indifferent	-10.8224
▁medicine	-10.8224
▁combined	-10.8224
▁repair	-10.8224
▁eastern	-10.8224
▁naught	-10.8224
Neither	-10.8224
▁western	-10.8224
▁monk	-10.8225
▁convert	-10.8225
▁favorite	-10.8226
▁&	-10.8226
▁Sands	-10.8227
▁Holt	-10.823
▁Lancaster	-10.8232
Listen	-10.824
▁Maid	-10.8241
stone	-10.8248
▁jest	-10.8254
▁acknowledge	-10.827
Say	-10.8277
▁tie	-10.8278
▁Mc	-10.8283
▁Sal	-10.8286
Yea	-10.8298
▁persist	-10.8298
▁Japan	-10.83
▁Mercer	-10.83
▁appreciate	-10.83
▁perpetual	-10.83
▁combination	-10.83
▁compliment	-10.83
▁likewise	-10.83
▁sustain	-10.83
▁raising	-10.83
▁wilderness	-10.83
▁split	-10.83
▁anchor	-10.8302
▁Officer	-10.8305
gar	-10.8305
▁entering	-10.8306
▁moderate	-10.8308
▁torment	-10.8311
▁finish	-10.8319
this	-10.8322
▁perform	-10.8323
▁fold	-10.8327
aga	-10.833
EL	-10.8333
▁writ	-10.8335
uni	-10.8344
▁wo	-10.8345
worth	-10.8346
round	-10.8349
Wal	-10.8351
court	-10.836
▁starting	-10.836
▁county	-10.836
▁finest	-10.8367
▁Cardigan	-10.8377
▁Hathaway	-10.8377
▁astonishment	-10.8377
▁lantern	-10.8377
▁wrought	-10.8377
▁whilst	-10.8377
▁disaster	-10.8377
▁saloon	-10.8377
Whether	-10.8377
▁argue	-10.8378
▁Men	-10.8378
▁irre	-10.8378
▁security	-10.838
▁slay	-10.8385
▁Island	-10.8391
▁distinction	-10.8392
▁30	-10.8392
▁Would	-10.8411
▁strangely	-10.8414
▁mixed	-10.8415
▁stole	-10.8426
▁**	-10.8432
▁province	-10.8438
berg	-10.8439
lock	-10.8441
chi	-10.845
▁Bunny	-10.8455
▁bargain	-10.8455
▁disgust	-10.8455
▁invitation	-10.8455
▁surgeon	-10.8455
▁amusement	-10.8455
▁polish	-10.8455
▁hither	-10.8455
▁bunch	-10.8456
Keep	-10.8458
▁daring	-10.8458
▁jaw	-10.8461
40	-10.8495
Bibbs	-10.8502
▁stable	-10.8502
▁Take	-10.8507
▁Thy	-10.8509
▁invent	-10.8517
▁Never	-10.853
▁formal	-10.8532
▁absorb	-10.8533
▁ceremony	-10.8533
▁monarch	-10.8533
▁philosopher	-10.8533
▁Marianne	-10.8533
▁assurance	-10.8533
▁revenge	-10.8533
Moreover	-10.8533
▁elsewhere	-10.8535
Connor	-10.8537
VI	-10.8541
Turn	-10.8554
▁rushing	-10.8558
Said	-10.8559
▁advise	-10.8574
▁abandoned	-10.8581
▁heels	-10.8583
▁breathing	-10.8589
▁shouting	-10.8602
15	-10.8609
▁confident	-10.8611
▁commercial	-10.8611
▁diamond	-10.8611
▁genuine	-10.8611
▁rejoice	-10.8611
▁respond	-10.8611
▁vulgar	-10.8611
▁Thorne	-10.8611
▁function	-10.8611
▁fragment	-10.8611
▁mamma	-10.8611
▁probable	-10.8611
▁blush	-10.8611
▁approve	-10.8611
▁Polly	-10.8612
▁accent	-10.8612
▁Buck	-10.8616
▁hideous	-10.8618
Tis	-10.8629
▁warned	-10.863
▁confined	-10.8632
▁summon	-10.8636
▁wot	-10.8639
▁limited	-10.8643
▁stew	-10.8647
▁map	-10.8649
▁perceive	-10.8654
▁bla	-10.8654
▁defect	-10.8663
▁claimed	-10.8669
▁apt	-10.8669
▁mode	-10.867
▁reflected	-10.8676
▁associate	-10.8691
▁audience	-10.8691
▁Euchre	-10.8691
▁enforce	-10.8691
▁throng	-10.8691
▁ambition	-10.8691
▁insect	-10.8691
▁Stelling	-10.8691
ounterpane	-10.8691
▁basis	-10.8691
▁knot	-10.8692
▁career	-10.8692
▁whale	-10.8694
▁hitherto	-10.8694
▁flock	-10.8696
▁Act	-10.8696
▁passes	-10.8698
▁25	-10.87
▁involved	-10.8702
▁coward	-10.8712
▁brass	-10.8712
▁starve	-10.8715
▁Sun	-10.8725
▁revealed	-10.8729
▁factor	-10.8739
▁twisted	-10.8741
▁affected	-10.8742
▁Hall	-10.8758
▁loyal	-10.8769
▁Ekeby	-10.8771
▁Federal	-10.8771
▁activity	-10.8771
▁channel	-10.8771
▁musket	-10.8771
▁volunteer	-10.8771
▁Edward	-10.8771
▁Italian	-10.8771
▁nought	-10.8771
▁roused	-10.8771
Get	-10.8772
▁disposition	-10.8773
▁household	-10.8781
▁marsh	-10.8786
May	-10.8793
▁22	-10.8795
▁Rome	-10.8798
Surely	-10.88
▁calmly	-10.8806
▁critical	-10.8807
▁arrive	-10.8814
▁Rev	-10.8816
▁condemned	-10.8817
▁Many	-10.882
▁model	-10.8833
▁Ann	-10.8839
Ex	-10.8844
▁throwing	-10.8844
▁Coyote	-10.8851
▁Theobald	-10.8851
▁escort	-10.8851
▁president	-10.8851
▁borrow	-10.8851
▁naval	-10.8851
▁Black	-10.8851
▁copy	-10.8852
▁link	-10.8852
▁wrapped	-10.8852
▁Ozma	-10.8853
▁Hague	-10.8854
▁sunlight	-10.8857
▁Maria	-10.8858
▁frontier	-10.8858
▁vow	-10.8859
▁ticket	-10.886
▁hatred	-10.8861
▁abruptly	-10.8868
Down	-10.8879
▁Since	-10.8889
▁Bri	-10.889
▁peaceful	-10.8894
▁admire	-10.8896
▁frank	-10.8898
▁dirt	-10.892
▁nut	-10.8927
▁weapon	-10.8928
▁maintained	-10.893
▁abundant	-10.8933
▁interview	-10.8933
▁muscle	-10.8933
▁responsibility	-10.8933
▁suspicious	-10.8933
▁thither	-10.8933
▁ultimate	-10.8933
▁hesitation	-10.8933
▁Wood	-10.8933
▁denied	-10.8934
▁blaze	-10.8935
▁revolver	-10.8938
▁duke	-10.894
▁establishment	-10.8941
▁Berg	-10.8942
now	-10.8951
▁indicated	-10.8956
▁loaded	-10.8957
▁conquer	-10.8957
▁yeh	-10.8964
▁upright	-10.8965
▁Till	-10.8965
▁soup	-10.8972
▁recently	-10.8973
▁ventured	-10.8978
▁obvious	-10.898
▁whereas	-10.8997
▁differ	-10.901
▁detect	-10.9014
▁covering	-10.9014
Pilgrim	-10.9015
▁Maurice	-10.9015
▁architect	-10.9015
▁disappointed	-10.9015
▁occupation	-10.9015
▁persuaded	-10.9015
▁wolves	-10.9015
▁grove	-10.9015
▁slice	-10.9015
▁mate	-10.9015
▁sincere	-10.9019
▁motionless	-10.9023
▁duck	-10.9025
▁Republican	-10.9026
▁badly	-10.903
60	-10.9034
▁bat	-10.9037
▁teaching	-10.9037
▁trembled	-10.9049
Me	-10.906
▁strict	-10.9063
Does	-10.9064
▁prey	-10.9071
▁BE	-10.9076
▁outward	-10.909
▁avail	-10.9094
ization	-10.9097
▁Belgian	-10.9097
▁disorder	-10.9097
▁engagement	-10.9097
▁swore	-10.9097
▁Northern	-10.9098
▁united	-10.9099
▁performance	-10.91
▁bison	-10.9101
▁Army	-10.9101
▁policeman	-10.9107
▁crop	-10.9108
▁Joan	-10.9111
▁cutting	-10.9124
▁Pen	-10.9131
▁curve	-10.9132
▁enabled	-10.9133
▁workmen	-10.9145
claim	-10.9151
▁sunk	-10.9164
mph	-10.9169
▁halted	-10.9169
▁bone	-10.9172
bert	-10.9173
▁disappointment	-10.9181
▁library	-10.9181
▁nonsense	-10.9181
▁responsible	-10.9181
▁velvet	-10.9181
▁timid	-10.9181
▁emerge	-10.9181
▁Latin	-10.9181
▁contest	-10.9181
▁dollar	-10.9183
▁thyself	-10.9185
▁McClellan	-10.9185
▁tribe	-10.9185
▁ruler	-10.9187
▁modest	-10.9197
▁Hill	-10.9198
▁damp	-10.9204
▁peak	-10.9204
Bu	-10.9207
▁Burn	-10.9214
Both	-10.9218
▁Each	-10.922
▁comb	-10.9223
duced	-10.9225
▁examine	-10.9228
▁slu	-10.9249
mount	-10.9253
▁Brigade	-10.9265
▁democracy	-10.9265
▁emphasis	-10.9265
▁estimate	-10.9265
▁invisible	-10.9265
▁miracle	-10.9265
▁satisfactory	-10.9265
▁snake	-10.9265
▁thief	-10.9265
▁wreck	-10.9265
▁dreary	-10.9265
▁whisk	-10.9265
▁salute	-10.9265
▁boast	-10.9265
▁roast	-10.9265
▁slim	-10.9266
▁railway	-10.9267
▁appointment	-10.9268
▁copper	-10.9269
▁Anna	-10.9272
Th	-10.9283
▁moan	-10.9312
▁positive	-10.9315
▁suspected	-10.9333
▁raft	-10.9335
▁burnt	-10.9345
▁prevented	-10.9347
▁telegraph	-10.9349
▁Protestant	-10.9349
▁Socrates	-10.9349
▁disguise	-10.9349
▁interpret	-10.9349
▁struggling	-10.9349
▁telegram	-10.9349
▁confused	-10.9349
▁zeal	-10.935
▁Berling	-10.935
▁Corps	-10.935
▁vivid	-10.9351
▁brick	-10.9351
EAR	-10.9352
▁Elzbieta	-10.9354
▁expectation	-10.9358
▁settlement	-10.9365
▁overcome	-10.9373
▁plantation	-10.9374
▁daylight	-10.9376
▁clasped	-10.9386
▁hail	-10.9389
▁Sometimes	-10.939
▁prepare	-10.9398
▁retire	-10.9398
Like	-10.9404
▁recognize	-10.941
▁gathering	-10.9413
▁outline	-10.9415
Ro	-10.9422
▁TO	-10.9429
▁paw	-10.9432
▁Africa	-10.9435
▁prosperity	-10.9435
▁territory	-10.9435
▁uniform	-10.9435
▁awoke	-10.9435
▁glove	-10.9435
▁meadow	-10.9435
▁mankind	-10.9435
▁constitute	-10.9436
▁gale	-10.9437
▁transport	-10.9438
▁spider	-10.9438
▁talent	-10.944
post	-10.9447
▁dense	-10.9448
▁lane	-10.9455
▁sack	-10.9461
▁effective	-10.9462
▁See	-10.9478
▁harder	-10.9479
▁sadly	-10.9481
▁inquire	-10.9485
about	-10.9493
Each	-10.9503
▁weeping	-10.9511
▁Utrecht	-10.9521
▁comparative	-10.9521
▁Valley	-10.9521
▁Laura	-10.9521
▁funeral	-10.9521
▁text	-10.9521
▁referred	-10.9523
▁breathe	-10.9523
▁Jew	-10.9525
▁saving	-10.9531
aught	-10.9534
▁joyous	-10.9535
▁yer	-10.9536
▁accomplish	-10.955
▁hog	-10.9551
SS	-10.9555
▁examined	-10.9559
▁needle	-10.9564
▁fist	-10.9565
▁exposed	-10.9573
Give	-10.9604
Remember	-10.9608
▁Wakem	-10.9608
▁cautious	-10.9608
▁frozen	-10.9608
▁mutual	-10.9608
▁wolf	-10.9608
▁widow	-10.9608
▁folly	-10.9608
▁trench	-10.9609
▁proposition	-10.9609
▁Dolor	-10.961
▁amused	-10.961
▁collected	-10.9611
ATION	-10.9611
▁cellar	-10.9616
▁Atherton	-10.9618
▁celebrated	-10.9619
▁travelling	-10.9619
▁dumb	-10.9621
hal	-10.9621
▁fright	-10.9623
▁formerly	-10.9628
▁partner	-10.9629
▁egg	-10.9634
▁Besides	-10.9635
▁Gra	-10.9636
20	-10.964
▁nigh	-10.9642
▁lament	-10.9642
▁dreaded	-10.9642
▁cock	-10.9649
▁masses	-10.9652
▁propose	-10.9662
Most	-10.9665
More	-10.9665
▁dashed	-10.9666
▁Char	-10.9689
▁chimney	-10.9696
▁scientific	-10.9696
▁Joselyn	-10.9696
▁appetite	-10.9696
▁assault	-10.9696
▁elaborate	-10.9696
▁rescue	-10.9696
▁twilight	-10.9696
▁Scott	-10.9696
▁Linda	-10.9696
▁creek	-10.9696
▁hoarse	-10.9696
▁disdain	-10.9696
▁trifle	-10.9696
▁alliance	-10.9696
▁organization	-10.9696
▁ashore	-10.9697
▁checked	-10.9698
▁enable	-10.97
16	-10.9702
▁disturbed	-10.9709
▁alarmed	-10.9722
▁arrest	-10.9726
hand	-10.973
▁glowing	-10.9733
▁Another	-10.9742
First	-10.9753
when	-10.9754
▁Hi	-10.9768
▁educat	-10.9779
▁wage	-10.9782
▁Petrie	-10.9784
▁capacity	-10.9784
▁inferior	-10.9784
▁magistrate	-10.9784
▁Chamber	-10.9784
▁Armand	-10.9784
▁Boston	-10.9785
▁suppress	-10.9785
▁bigger	-10.9792
▁agreement	-10.9793
▁Lake	-10.9793
▁shine	-10.9796
▁standard	-10.9799
▁Spaniard	-10.9801
▁refer	-10.9802
▁wretch	-10.9816
▁dug	-10.9819
▁strictly	-10.9821
▁dash	-10.9825
▁flashed	-10.9834
▁tremble	-10.9836
▁traveler	-10.9841
Also	-10.9848
yard	-10.9848
▁bi	-10.9872
▁painting	-10.9873
▁Nicholas	-10.9874
▁cavalry	-10.9874
▁college	-10.9874
▁conspicuous	-10.9874
▁solitary	-10.9874
▁disgrace	-10.9874
▁casual	-10.9874
▁survey	-10.9874
▁Western	-10.9874
▁Fingers	-10.9874
▁negotiations	-10.9874
▁beetle	-10.9875
▁drag	-10.9875
▁closing	-10.9875
▁cream	-10.988
Ye	-10.9889
▁Russian	-10.9894
▁affect	-10.9895
▁gloomy	-10.9901
▁furnish	-10.9906
▁crush	-10.9911
▁Therefore	-10.9913
▁endless	-10.9944
▁Still	-10.9949
▁Isabel	-10.9964
▁ceiling	-10.9964
▁chuck	-10.9964
▁corporal	-10.9964
▁document	-10.9964
▁obedience	-10.9964
▁resemble	-10.9964
▁survive	-10.9964
▁yonder	-10.9964
▁formidable	-10.9964
▁rigid	-10.9964
▁mingled	-10.9964
▁Deane	-10.9964
▁Slave	-10.9964
▁prophet	-10.9964
▁Trot	-10.9964
▁threatening	-10.9965
▁correspondence	-10.9965
▁debate	-10.9966
▁picturesque	-10.9966
▁flourish	-10.9967
▁peep	-10.9967
▁stopping	-10.9968
▁passionate	-10.9974
ja	-10.9975
▁puff	-10.998
▁pronounced	-10.998
▁bushes	-10.9981
▁screamed	-10.9982
▁flushed	-11.0012
▁echoed	-11.0017
▁arrested	-11.0023
▁assure	-11.0032
▁shave	-11.0044
▁Archbishop	-11.0055
▁Professor	-11.0055
▁Strett	-11.0055
▁permanent	-11.0055
▁unpleasant	-11.0055
▁devour	-11.0055
▁pork	-11.0055
▁gallop	-11.0055
▁civilization	-11.0055
▁electric	-11.0056
▁disagreeable	-11.0056
▁bloom	-11.0056
▁Tell	-11.0056
▁protested	-11.0056
▁woke	-11.0057
▁tread	-11.0057
▁bolt	-11.0062
▁Jennie	-11.0063
▁trader	-11.0066
▁drum	-11.0068
▁puzzled	-11.007
part	-11.0071
▁bite	-11.0073
▁Cal	-11.0074
▁unlike	-11.0074
iddle	-11.008
▁remov	-11.0086
▁stolen	-11.0088
▁twist	-11.0088
rink	-11.0113
gone	-11.0118
▁blessing	-11.0118
▁dam	-11.0132
▁Spirit	-11.0146
▁continuous	-11.0146
▁delicious	-11.0146
▁inevitable	-11.0146
▁landscape	-11.0146
▁rebellion	-11.0146
▁session	-11.0146
▁Cousin	-11.0146
10	-11.0147
▁distinguish	-11.0147
▁regulat	-11.0148
▁steer	-11.0149
Second	-11.0149
▁Joe	-11.0151
▁planned	-11.0154
▁charity	-11.0154
▁frog	-11.0156
▁cure	-11.0157
stand	-11.0167
▁faster	-11.0177
▁lend	-11.0185
▁mum	-11.0203
▁constitutional	-11.0204
Great	-11.0208
rried	-11.0228
▁clam	-11.0232
▁cultivate	-11.0239
▁colonel	-11.0239
▁crazy	-11.0239
▁determination	-11.0239
▁downstairs	-11.0239
▁independence	-11.0239
▁necessarily	-11.0239
▁rejoined	-11.0239
▁crisis	-11.0239
▁seventeen	-11.0239
▁lofty	-11.0239
▁entreat	-11.0239
▁claw	-11.0239
▁crystal	-11.0239
Please	-11.0239
dded	-11.024
OW	-11.0244
▁angle	-11.0251
**	-11.0255
Know	-11.0256
▁alas	-11.0256
range	-11.0268
▁circumstance	-11.0269
▁interrupt	-11.0275
▁shower	-11.0281
▁humanity	-11.0292
▁crushed	-11.03
▁previously	-11.0307
▁Out	-11.0309
why	-11.0315
▁Austria	-11.0332
▁Constantia	-11.0332
▁Saturday	-11.0332
▁battalion	-11.0332
▁corrupt	-11.0332
▁defense	-11.0332
▁footsteps	-11.0332
▁receiving	-11.0332
▁concentrate	-11.0332
▁timber	-11.0332
▁decree	-11.0333
▁restrict	-11.0333
▁twin	-11.0334
Out	-11.0338
▁murderer	-11.0339
▁dislike	-11.034
▁Chinaman	-11.034
▁Mother	-11.0342
▁blast	-11.0345
▁Perseus	-11.0347
▁Rock	-11.0349
▁consented	-11.0353
▁tenderness	-11.0353
▁Long	-11.0354
▁Four	-11.0356
▁mail	-11.0356
▁gap	-11.0361
▁abandon	-11.0369
▁tossed	-11.0377
▁remove	-11.0393
William	-11.0396
▁musical	-11.0401
▁folded	-11.0403
Maya	-11.0408
▁payment	-11.0409
▁rob	-11.0411
▁India	-11.0414
▁bake	-11.0425
^	-11.0427
ological	-11.0427
▁comparison	-11.0427
▁convenient	-11.0427
▁symbol	-11.0427
▁tomorrow	-11.0427
▁Golden	-11.0427
▁rural	-11.0427
▁hook	-11.0427
▁saint	-11.0428
▁normal	-11.0428
▁galley	-11.0428
▁proclaim	-11.0428
▁grain	-11.0431
▁Marjorie	-11.0432
back	-11.0433
▁extra	-11.0436
▁27	-11.0438
▁readily	-11.0441
▁combat	-11.0443
▁improvement	-11.0447
▁vest	-11.0454
▁conceived	-11.0457
Car	-11.0457
▁Dur	-11.046
▁arrange	-11.0465
▁expos	-11.0476
▁bin	-11.0479
▁crow	-11.0512
▁fiercely	-11.0513
scription	-11.0522
è	-11.0522
▁Creek	-11.0522
▁amazement	-11.0522
▁examination	-11.0522
▁ribbon	-11.0522
▁trousers	-11.0522
▁Whig	-11.0522
▁inquiry	-11.0522
▁deaf	-11.0522
▁carved	-11.0522
▁sofa	-11.0524
▁fiend	-11.0524
▁divers	-11.0527
▁Name	-11.0527
▁overlook	-11.0531
▁strengthen	-11.0532
▁recollection	-11.0534
▁crest	-11.0547
▁restored	-11.0551
▁develop	-11.0553
Fear	-11.0557
▁obviously	-11.0562
▁Hull	-11.0566
▁induce	-11.057
▁Under	-11.0573
▁drawer	-11.058
▁However	-11.0584
think	-11.0602
▁Baron	-11.0605
▁confront	-11.0618
▁Dublin	-11.0618
▁Thomas	-11.0618
▁agitation	-11.0618
▁holiday	-11.0618
▁multitude	-11.0618
▁pattern	-11.0618
▁permission	-11.0618
▁reinforce	-11.0618
▁stomach	-11.0618
▁stricken	-11.0618
▁obstacle	-11.0618
▁Flanders	-11.0618
▁caution	-11.0618
▁invasion	-11.0618
▁parlor	-11.0618
▁spoon	-11.0618
▁stove	-11.0618
▁Brown	-11.0618
▁abide	-11.0619
▁fret	-11.0619
▁Robert	-11.0619
▁hostile	-11.062
▁favourite	-11.0621
▁abuse	-11.0625
▁travelled	-11.0629
▁Englishmen	-11.0638
▁roared	-11.0644
▁occasional	-11.0645
▁hap	-11.0668
▁23	-11.0673
▁assume	-11.0678
▁bind	-11.0684
▁import	-11.0714
OSTA	-11.0715
▁Sawtelle	-11.0715
▁admirable	-11.0715
▁crimson	-11.0715
▁dimension	-11.0715
▁surprising	-11.0715
▁nineteen	-11.0715
▁reckless	-11.0715
▁Jean	-11.0715
▁Point	-11.0715
▁Adam	-11.0716
▁attained	-11.0716
RY	-11.0721
▁cough	-11.0724
▁coach	-11.0725
UT	-11.0728
▁repent	-11.0729
▁suitable	-11.0731
Quite	-11.074
▁outrage	-11.0747
▁lucky	-11.0759
▁echo	-11.076
▁24	-11.0761
▁demon	-11.0764
▁churches	-11.0766
▁floated	-11.0767
▁planted	-11.078
rain	-11.0794
▁boiling	-11.0797
▁negro	-11.0802
▁ME	-11.0805
▁marvel	-11.0811
▁lip	-11.0813
▁apprehension	-11.0813
▁conception	-11.0813
▁ridiculous	-11.0813
▁sensible	-11.0813
▁suspend	-11.0813
▁literally	-11.0813
▁brisk	-11.0813
▁bliss	-11.0813
▁fifth	-11.0813
▁damsel	-11.0813
▁Sherman	-11.0813
▁vinegar	-11.0813
▁cigarette	-11.0814
▁statesman	-11.0814
▁adorn	-11.0815
▁background	-11.0821
je	-11.0822
▁negroes	-11.0824
rick	-11.0837
▁thoughtfully	-11.084
▁bitterness	-11.0841
pence	-11.0867
▁sweetness	-11.0867
▁ripe	-11.0875
Ruth	-11.0881
fast	-11.0882
▁rarely	-11.0895
▁communicat	-11.0897
▁riches	-11.0897
▁tightly	-11.09
▁Brussels	-11.0912
▁CLEANTHES	-11.0912
▁Square	-11.0912
▁corridor	-11.0912
▁elephant	-11.0912
▁fatigue	-11.0912
▁recognition	-11.0912
▁supplies	-11.0912
▁vegetable	-11.0912
▁devotion	-11.0912
▁occupy	-11.0912
▁thumb	-11.0912
Should	-11.0912
▁fowl	-11.0912
▁plot	-11.0913
▁fundamental	-11.0913
▁infantry	-11.0915
▁pasture	-11.0931
▁respectable	-11.0937
▁madness	-11.0939
▁ashes	-11.095
▁Nu	-11.0951
▁citizen	-11.0966
▁cheerfully	-11.0973
▁oppos	-11.0979
▁prime	-11.0981
▁Poor	-11.0985
▁wan	-11.0988
Gran	-11.0993
▁greeted	-11.0996
▁construct	-11.1006
▁Give	-11.1007
▁dwarf	-11.1012
▁Provinces	-11.1012
▁artillery	-11.1012
▁envelope	-11.1012
▁indignation	-11.1012
▁liquor	-11.1012
▁mischief	-11.1012
▁response	-11.1012
▁cunning	-11.1012
▁mechanic	-11.1012
▁Arthur	-11.1012
▁beheld	-11.1012
▁resort	-11.1012
▁substitute	-11.1013
▁chatter	-11.1013
▁bending	-11.1014
▁sancti	-11.1015
▁tire	-11.1016
▁preferred	-11.1017
▁firing	-11.1017
▁hoping	-11.1019
Half	-11.1022
▁declined	-11.1028
▁mast	-11.1029
▁enjoyment	-11.1035
▁confession	-11.1037
▁acquired	-11.1038
▁deposit	-11.1039
Dr	-11.105
▁aught	-11.1052
position	-11.1054
▁condemn	-11.1055
▁gan	-11.1069
down	-11.1079
▁thorough	-11.1079
▁cove	-11.1082
AY	-11.1082
▁severely	-11.1087
know	-11.1087
ease	-11.1091
▁attracted	-11.1094
▁commun	-11.1108
▁Douglas	-11.1113
▁cañon	-11.1113
▁commerce	-11.1113
▁fountain	-11.1113
▁scholar	-11.1113
▁tragedy	-11.1113
▁vengeance	-11.1113
▁clung	-11.1113
▁idiot	-11.1113
▁literary	-11.1113
▁portrait	-11.1113
▁dictat	-11.1113
▁courtesy	-11.1113
▁ascend	-11.1114
▁Constitution	-11.1114
▁composition	-11.1114
OME	-11.1115
ENT	-11.1129
▁plunged	-11.1135
▁encouraged	-11.1142
▁depart	-11.115
▁frankly	-11.1156
pher	-11.1156
▁floating	-11.1162
▁frightful	-11.1166
▁feather	-11.117
▁Cur	-11.1184
Besides	-11.1184
▁conquered	-11.1185
▁duel	-11.1196
According	-11.1215
▁accompany	-11.1215
▁dwelt	-11.1215
▁impatience	-11.1215
▁injured	-11.1215
▁nephew	-11.1215
▁peddler	-11.1215
▁revolt	-11.1215
▁substance	-11.1215
▁brute	-11.1215
▁sledge	-11.1215
▁rubbed	-11.1215
▁lump	-11.1215
▁crave	-11.1215
▁Davis	-11.1216
▁barren	-11.1216
▁patron	-11.1216
▁fiery	-11.1217
▁apply	-11.122
▁tune	-11.1231
▁startling	-11.1231
▁trot	-11.1237
▁panic	-11.1243
▁included	-11.1245
▁Asad	-11.1246
▁laborers	-11.1247
▁advised	-11.1264
ground	-11.127
plied	-11.1314
▁correspond	-11.1317
▁Dunwoodie	-11.1318
▁Grattan	-11.1318
▁brigade	-11.1318
▁injury	-11.1318
▁manufacture	-11.1318
▁Texas	-11.1318
▁scratch	-11.1318
▁tragic	-11.1318
▁memories	-11.1318
▁application	-11.1319
▁annual	-11.1319
▁mineral	-11.1323
Several	-11.1325
▁Roland	-11.1325
▁Board	-11.1328
▁theatre	-11.1331
▁flies	-11.1341
HRO	-11.1344
▁thicket	-11.1379
▁male	-11.1385
▁nay	-11.1388
æ	-11.1423
▁Godolphin	-11.1423
▁Margaret	-11.1423
▁emperor	-11.1423
▁behalf	-11.1423
▁skies	-11.1423
▁banish	-11.1423
▁penetrate	-11.1423
▁Terra	-11.1426
▁construction	-11.1429
▁Helen	-11.143
▁childhood	-11.1431
▁rash	-11.1431
▁meantime	-11.1432
coming	-11.1453
▁establish	-11.146
▁bury	-11.146
▁admired	-11.147
▁limb	-11.1503
▁frighten	-11.1506
▁louder	-11.151
▁embarrass	-11.1519
▁Mississippi	-11.1528
▁bonnet	-11.1528
▁ascertain	-11.1528
▁suffice	-11.1528
▁bluff	-11.1528
▁swamp	-11.1528
▁withdrew	-11.1528
▁Faith	-11.1528
▁saith	-11.1528
▁intellectual	-11.1528
▁neighbourhood	-11.1529
▁waving	-11.153
▁Luke	-11.1532
▁speedily	-11.1532
▁westward	-11.1533
▁employment	-11.1537
▁machinery	-11.154
▁professor	-11.1543
▁inspired	-11.1544
▁creation	-11.1558
▁solicit	-11.1561
▁Gray	-11.1562
▁nowhere	-11.1566
▁followers	-11.1567
▁jar	-11.1573
matic	-11.1596
Smith	-11.1603
Kent	-11.1623
▁subsequent	-11.1634
▁Clarence	-11.1634
▁abundance	-11.1634
▁sensitive	-11.1634
▁smoking	-11.1634
▁villain	-11.1634
▁pluck	-11.1634
▁Frank	-11.1634
▁committee	-11.1634
▁rascal	-11.1634
Thereupon	-11.1636
▁cannon	-11.1636
▁eagerness	-11.1651
▁Cape	-11.1679
▁Oz	-11.1699
17	-11.17
▁shallow	-11.1702
▁Moss	-11.174
▁anguish	-11.1742
▁divorce	-11.1742
▁irregular	-11.1742
▁structure	-11.1742
▁stubborn	-11.1742
▁cushion	-11.1742
▁harmony	-11.1742
▁related	-11.1742
▁assail	-11.1742
▁Monday	-11.1743
▁canvas	-11.1744
▁physician	-11.1745
Speak	-11.1745
▁legend	-11.1745
▁29	-11.1745
▁brake	-11.1747
▁rug	-11.1748
▁mouse	-11.1748
▁affectionate	-11.1749
▁corpse	-11.1756
▁Time	-11.1763
▁sickness	-11.1775
Po	-11.1791
▁flush	-11.1792
▁vine	-11.1798
▁announce	-11.1813
30	-11.1824
▁float	-11.1849
▁Benedict	-11.185
▁advancing	-11.185
▁bewildered	-11.185
▁colonies	-11.185
▁comprehend	-11.185
▁significant	-11.185
Suppose	-11.1851
plication	-11.1851
▁criticism	-11.1852
▁penny	-11.1856
Above	-11.1857
▁21	-11.1866
▁Bible	-11.187
▁breathless	-11.1875
▁wink	-11.188
▁everyone	-11.1891
▁perfection	-11.1896
▁introduc	-11.1901
▁uncertain	-11.1958
OCRAT	-11.196
▁Gurney	-11.196
▁Napoleon	-11.196
▁chorus	-11.196
▁endeavor	-11.196
▁politician	-11.196
▁preceding	-11.196
▁prominent	-11.196
▁terribly	-11.196
HYP	-11.196
▁dainty	-11.196
▁eminent	-11.196
▁worm	-11.196
▁supplied	-11.1961
▁abode	-11.1961
▁extract	-11.1961
▁sneer	-11.1961
▁owing	-11.1963
▁drain	-11.1963
▁wander	-11.1963
▁wiped	-11.1966
▁rattle	-11.1966
midst	-11.1967
▁drunken	-11.1971
19	-11.1972
▁selfish	-11.1977
▁Kut	-11.1978
▁Could	-11.1983
▁Pope	-11.1983
▁Tea	-11.1988
▁pious	-11.2
▁acknowledg	-11.2003
▁err	-11.205
▁Than	-11.2056
▁realise	-11.2059
Men	-11.2069
duction	-11.2071
nceforth	-11.2071
▁THAT	-11.2071
▁colony	-11.2071
▁continent	-11.2071
▁discharge	-11.2071
▁entitled	-11.2071
▁goddess	-11.2071
▁opponent	-11.2071
▁shrugged	-11.2071
▁Curdie	-11.2071
▁Watson	-11.2071
▁brook	-11.2071
▁preparing	-11.2071
▁pupil	-11.2071
▁Caesar	-11.2071
▁splash	-11.2071
▁dismay	-11.2071
▁wrist	-11.2071
▁captive	-11.2072
▁Cross	-11.2072
▁clapp	-11.2073
▁ragged	-11.2074
▁awakened	-11.2075
▁resentment	-11.2077
▁remainder	-11.2078
▁northward	-11.2081
▁impatiently	-11.2104
ami	-11.2109
▁fry	-11.2116
Stop	-11.2129
▁Most	-11.215
▁compose	-11.2155
▁mari	-11.2171
▁resent	-11.2181
▁infant	-11.2183
▁chemist	-11.2184
▁tobacco	-11.2184
▁romance	-11.2184
▁cordial	-11.2184
▁pulse	-11.2184
▁owl	-11.2184
▁compensat	-11.2184
▁Britain	-11.2185
▁loath	-11.2185
▁melted	-11.2186
▁leadership	-11.2186
▁errand	-11.2187
▁Nobody	-11.219
▁Italy	-11.2191
▁grandma	-11.2192
▁Harry	-11.2195
▁entertainment	-11.2206
▁accused	-11.2207
▁highway	-11.2208
▁Think	-11.221
▁bang	-11.2212
UL	-11.2229
▁axe	-11.2229
▁socialist	-11.2239
Elizabeth	-11.2266
▁semi	-11.228
▁instruction	-11.2284
perative	-11.2287
▁urge	-11.2288
Almost	-11.2291
▁Magloire	-11.2297
▁Packingtown	-11.2297
▁amazed	-11.2297
▁emancipation	-11.2297
▁legislature	-11.2297
▁practise	-11.2297
▁resolute	-11.2297
▁buzz	-11.2297
▁reverence	-11.2297
▁concert	-11.2297
▁Sandra	-11.2297
▁patent	-11.2298
▁Stevens	-11.2298
▁organized	-11.2299
▁digging	-11.2299
▁courteous	-11.23
▁Karamaneh	-11.2304
▁swim	-11.2307
close	-11.2309
▁temptation	-11.2312
▁meek	-11.2318
▁invention	-11.2322
ruct	-11.2331
▁Die	-11.2332
▁frost	-11.2341
EUT	-11.2345
▁conceive	-11.2375
General	-11.2381
AND	-11.2394
▁successor	-11.2398
▁submit	-11.2409
▁Potomac	-11.2412
▁Providence	-11.2412
▁Provincial	-11.2412
▁admiral	-11.2412
▁admiring	-11.2412
▁affirm	-11.2412
▁calculate	-11.2412
▁commenced	-11.2412
▁guarantee	-11.2412
▁happier	-11.2412
▁jacket	-11.2412
▁possibilities	-11.2412
▁umbrella	-11.2412
▁uncomfortable	-11.2412
▁battery	-11.2412
▁brood	-11.2412
▁manuscript	-11.2412
▁pistol	-11.2412
▁bubble	-11.2412
▁swarm	-11.2413
▁clergyman	-11.2415
▁mask	-11.2416
LO	-11.2424
▁dependent	-11.2424
▁snap	-11.2425
▁fifteenth	-11.2441
▁gotten	-11.2453
▁chop	-11.2453
Hold	-11.246
▁Big	-11.2478
▁recognise	-11.2491
▁impatient	-11.2494
▁26	-11.2494
▁lib	-11.2496
point	-11.25
under	-11.25
▁profess	-11.2501
▁gravel	-11.2502
▁brand	-11.2514
look	-11.2517
▁bust	-11.2519
▁Chief	-11.2529
▁Leicester	-11.2529
▁conference	-11.2529
▁exciting	-11.2529
▁extensive	-11.2529
▁fortnight	-11.2529
▁separation	-11.2529
▁significance	-11.2529
▁squadron	-11.2529
▁angrily	-11.2529
▁conquest	-11.2529
▁lodging	-11.2529
▁parcel	-11.2529
▁Devil	-11.2529
▁National	-11.2529
▁wheat	-11.2529
▁launch	-11.2529
Probably	-11.2529
▁heathen	-11.2531
▁Life	-11.2532
▁throb	-11.2534
▁couch	-11.2538
Until	-11.2538
▁FOR	-11.2538
Madam	-11.254
▁youthful	-11.2575
▁thankful	-11.2582
▁mix	-11.2595
LY	-11.2603
▁challenge	-11.2646
▁discipline	-11.2646
▁temporary	-11.2646
▁burglar	-11.2646
▁reception	-11.2646
▁situated	-11.2646
▁pillar	-11.2646
Near	-11.2647
▁interven	-11.2648
▁introduction	-11.2648
▁comfortably	-11.2651
▁28	-11.2652
▁<1	-11.2655
▁pump	-11.2655
▁Night	-11.2656
▁tray	-11.2661
▁brandy	-11.2665
▁laden	-11.2678
14	-11.2707
▁bough	-11.2718
▁conclude	-11.2728
▁divide	-11.2729
Qu	-11.275
▁Baltimore	-11.2765
▁Democratic	-11.2765
▁Nassau	-11.2765
▁Pontifex	-11.2765
▁Sharrkan	-11.2765
▁Tennessee	-11.2765
▁financial	-11.2765
▁mermaid	-11.2765
▁skeleton	-11.2765
▁substantial	-11.2765
▁Eltham	-11.2765
▁Swithin	-11.2765
▁tidings	-11.2765
Beyond	-11.2765
▁retort	-11.2765
▁bulk	-11.2766
▁mule	-11.2766
Already	-11.2766
▁Pacific	-11.2766
▁Lucy	-11.2767
▁scarlet	-11.2768
▁marvelous	-11.2768
▁parent	-11.2771
▁repose	-11.278
lving	-11.2792
▁representation	-11.2797
cause	-11.2807
loom	-11.2813
▁scow	-11.2822
▁desir	-11.2826
▁tub	-11.2827
▁reveal	-11.2828
▁critic	-11.283
▁Up	-11.2837
▁create	-11.286
▁troop	-11.2879
▁Valjean	-11.2886
▁carpenter	-11.2886
▁defensive	-11.2886
▁exaggerate	-11.2886
▁francs	-11.2886
▁prejudice	-11.2886
▁studies	-11.2886
▁latitude	-11.2886
▁Lewis	-11.2886
▁blur	-11.2886
▁revive	-11.2886
▁Eastern	-11.2886
▁programme	-11.2887
▁forbidden	-11.2888
▁rosy	-11.2889
▁damage	-11.2889
▁desirable	-11.289
▁Turk	-11.289
▁impart	-11.2895
▁embarrassment	-11.2896
▁tuck	-11.2899
▁Forster	-11.2913
▁factory	-11.2931
▁cage	-11.2948
town	-11.2981
bury	-11.2989
°	-11.3008
▁Antwerp	-11.3008
▁Baptist	-11.3008
▁Commander	-11.3008
▁Prussia	-11.3008
▁Sultan	-11.3008
▁accurate	-11.3008
▁adequate	-11.3008
▁climate	-11.3008
▁cluster	-11.3008
▁esteem	-11.3008
▁happily	-11.3008
▁illustration	-11.3008
▁indefinite	-11.3008
▁unnecessary	-11.3008
$	-11.3008
▁Harvey	-11.3008
▁psych	-11.3008
▁incense	-11.3008
▁decay	-11.3008
▁harp	-11.3008
▁devise	-11.301
▁greed	-11.301
▁Tany	-11.3011
▁dart	-11.3025
▁lamb	-11.3025
▁fitting	-11.3025
trust	-11.3045
▁Bull	-11.3049
XVII	-11.3055
▁musician	-11.3072
▁gasp	-11.3084
▁file	-11.3084
▁drama	-11.313
▁advertise	-11.3131
▁Committee	-11.3131
▁Wazir	-11.3131
▁assembly	-11.3131
▁contemplate	-11.3131
▁distract	-11.3131
▁ghastly	-11.3131
▁innumerable	-11.3131
▁knelt	-11.3131
▁lacquer	-11.3131
▁monstrous	-11.3131
▁perception	-11.3131
▁piazza	-11.3131
▁precaution	-11.3131
▁rejoicing	-11.3131
▁shrewd	-11.3131
▁uneasy	-11.3131
▁Apostle	-11.3131
▁World	-11.3131
▁diminish	-11.3131
▁slumber	-11.3131
Galatea	-11.3131
▁niece	-11.3131
▁statue	-11.3131
▁pledge	-11.3131
▁Birch	-11.3131
▁stroll	-11.3131
▁presume	-11.3131
▁smash	-11.3131
▁inspector	-11.3132
▁limp	-11.3132
▁Power	-11.3132
▁stalk	-11.3132
▁edition	-11.3133
▁pleasing	-11.3134
▁gorge	-11.3135
▁hurl	-11.3138
▁helmet	-11.3139
▁hospitality	-11.314
▁canoe	-11.314
▁raid	-11.3148
▁hush	-11.3149
▁fig	-11.315
▁mob	-11.3151
▁professional	-11.3154
▁taxes	-11.3156
▁invade	-11.3157
▁rustle	-11.319
▁exhaust	-11.3198
None	-11.3202
▁Carl	-11.3222
▁restore	-11.3224
▁basin	-11.3224
Clover	-11.3225
Lord	-11.3227
▁Russia	-11.3228
ê	-11.3256
▁consolation	-11.3256
▁frantic	-11.3256
▁sympathetic	-11.3256
▁whither	-11.3256
▁Halleck	-11.3256
▁strife	-11.3256
▁tumult	-11.3256
▁shawl	-11.3256
▁gossip	-11.3256
▁solution	-11.3256
▁replaced	-11.3256
▁knit	-11.3256
▁worried	-11.3256
▁NOT	-11.3257
▁discern	-11.3257
▁pensionary	-11.3257
▁Wolf	-11.3258
▁alternative	-11.3259
▁forsake	-11.3259
▁Carr	-11.3261
▁scold	-11.3261
▁attractive	-11.3262
▁kid	-11.3279
▁crust	-11.3299
70	-11.3313
▁adopt	-11.3325
▁guilt	-11.3364
▁shoe	-11.338
▁Chopin	-11.3383
▁PHILO	-11.3383
▁Revolution	-11.3383
▁Scotland	-11.3383
▁competition	-11.3383
▁decisive	-11.3383
▁destined	-11.3383
▁external	-11.3383
▁grievance	-11.3383
▁salvation	-11.3383
▁terrified	-11.3383
▁traffic	-11.3383
▁Jeems	-11.3383
▁liquid	-11.3383
▁conserv	-11.3383
▁sermon	-11.3383
▁altered	-11.3383
vocation	-11.3383
▁piteous	-11.3384
▁reverse	-11.3384
▁sauce	-11.3385
▁tiger	-11.3385
▁amusing	-11.3386
▁sworn	-11.3386
▁loyalty	-11.3386
▁mournful	-11.3388
▁Mink	-11.3389
▁petty	-11.3389
▁foam	-11.339
▁prick	-11.3395
▁dishes	-11.3412
▁compel	-11.3437
lusive	-11.3443
▁include	-11.3474
▁resolve	-11.3474
Later	-11.3494
▁brutal	-11.3511
▁contradict	-11.3511
▁exclamation	-11.3511
▁wreath	-11.3511
▁Empire	-11.3511
▁Florida	-11.3511
▁Francis	-11.3511
▁Governor	-11.3511
▁Imperial	-11.3511
▁Negoro	-11.3511
▁artificial	-11.3511
▁brethren	-11.3511
▁detachment	-11.3511
▁excursion	-11.3511
▁fugitive	-11.3511
▁incapable	-11.3511
▁ministry	-11.3511
▁notwithstanding	-11.3511
▁potatoes	-11.3511
▁simplicity	-11.3511
▁intensity	-11.3511
▁torrent	-11.3511
▁babies	-11.3511
▁sullen	-11.3511
▁essence	-11.3511
▁shrine	-11.3511
▁shrill	-11.3511
▁pavement	-11.3511
▁hound	-11.3511
▁shepherd	-11.3511
▁Jones	-11.3512
▁shelf	-11.3512
▁Simon	-11.3514
▁Jackson	-11.3515
▁triumphant	-11.3518
Trim	-11.3521
▁ninety	-11.3522
▁formula	-11.3523
Maybe	-11.3524
▁favourable	-11.3525
Against	-11.3534
▁bred	-11.3542
▁31	-11.3556
▁encourage	-11.36
▁indicate	-11.3604
Quick	-11.3606
Sheridan	-11.361
Father	-11.361
Soames	-11.361
▁speculat	-11.3621
▁Mexican	-11.3641
▁guild	-11.3641
▁Amerigo	-11.3641
▁accumulat	-11.3641
▁clatter	-11.3641
▁concession	-11.3641
▁confound	-11.3641
▁draught	-11.3641
▁headquarters	-11.3641
▁indifference	-11.3641
▁prudent	-11.3641
▁romantic	-11.3641
▁tempest	-11.3641
▁undoubtedly	-11.3641
▁girdle	-11.3641
▁smote	-11.3641
▁decoration	-11.3641
▁senator	-11.3641
▁unseen	-11.3641
▁expert	-11.3641
▁adult	-11.3642
▁tendency	-11.3642
▁solve	-11.3642
▁subdue	-11.3643
▁grinned	-11.3644
▁steed	-11.3644
▁skip	-11.3647
▁available	-11.3647
▁alien	-11.3649
▁sinner	-11.3649
▁guardian	-11.3658
▁heroic	-11.3672
▁purse	-11.3684
▁tame	-11.3713
Jo	-11.3724
▁lone	-11.3761
▁Condemn	-11.3772
▁Egypt	-11.3772
▁Lamhorn	-11.3772
▁cricket	-11.3772
▁glancing	-11.3772
▁gravity	-11.3772
▁obstinate	-11.3772
▁offensive	-11.3772
▁threshold	-11.3772
▁Gordon	-11.3772
▁hazard	-11.3772
▁imitation	-11.3772
▁shilling	-11.3772
▁wondrous	-11.3772
▁adapt	-11.3773
▁empire	-11.3773
▁riot	-11.378
▁fringe	-11.3782
▁tick	-11.3784
▁rack	-11.38
▁attendant	-11.3802
▁100	-11.3845
▁park	-11.3847
▁clasp	-11.3848
▁attach	-11.3851
Z	-11.3875
▁drug	-11.3882
▁Belgium	-11.3906
▁Colfax	-11.3906
▁Colorado	-11.3906
▁ancestor	-11.3906
▁harvest	-11.3906
▁uncommon	-11.3906
▁grieve	-11.3906
▁remedy	-11.3906
▁relax	-11.3906
▁device	-11.3906
▁overthrow	-11.3906
▁amendment	-11.3906
▁auction	-11.3906
▁contend	-11.3906
▁loaf	-11.3906
▁monast	-11.3906
▁imperfect	-11.3906
▁dropping	-11.391
▁regent	-11.3913
Women	-11.3913
▁loveliness	-11.3915
▁Home	-11.3922
▁exertion	-11.3927
Child	-11.393
▁brace	-11.3941
▁respectful	-11.4017
good	-11.403
▁photograph	-11.4041
▁Journalist	-11.4041
▁Lieutenant	-11.4041
▁bronze	-11.4041
▁irresistible	-11.4041
▁militia	-11.4041
▁probability	-11.4041
▁rabbit	-11.4041
▁companies	-11.4041
▁spectator	-11.4041
▁pathetic	-11.4041
▁hawk	-11.4041
▁illusion	-11.4041
▁tribute	-11.4041
▁partially	-11.4041
saké	-11.4041
▁loneliness	-11.4041
▁rubber	-11.4043
▁odor	-11.4044
▁waking	-11.4044
▁spoonful	-11.4045
▁trod	-11.4046
▁bandage	-11.4051
▁raw	-11.4078
▁determine	-11.4141
Which	-11.4147
would	-11.4151
stitute	-11.4175
▁Ghanim	-11.4178
▁Greece	-11.4178
▁Phillip	-11.4178
▁abstract	-11.4178
▁biscuit	-11.4178
▁culture	-11.4178
▁demonstration	-11.4178
▁embroider	-11.4178
▁fantastic	-11.4178
▁furnace	-11.4178
▁godmother	-11.4178
▁legislation	-11.4178
▁marvellous	-11.4178
▁Friday	-11.4178
▁gamble	-11.4178
▁envoy	-11.4178
▁pitiful	-11.4178
▁inquiries	-11.4178
▁raven	-11.4178
▁initial	-11.4179
▁<2	-11.4179
▁Leigh	-11.418
▁distrust	-11.4181
count	-11.4184
▁entry	-11.4184
▁clay	-11.4186
▁Lawton	-11.4187
▁jug	-11.4191
▁Free	-11.4192
▁Marsh	-11.42
Josie	-11.4286
could	-11.4286
▁tolerabl	-11.431
▁clergy	-11.4313
etween	-11.4315
▁helm	-11.4316
/	-11.4317
Monseigneur	-11.4317
▁Soldier	-11.4317
▁Swallowtail	-11.4317
▁congregation	-11.4317
▁declaration	-11.4317
▁derived	-11.4317
▁historical	-11.4317
▁mosquito	-11.4317
▁pierced	-11.4317
▁telephone	-11.4317
▁yourselves	-11.4317
▁horrid	-11.4317
▁violet	-11.4317
▁fancied	-11.4317
▁bodily	-11.4317
▁omit	-11.4317
▁stump	-11.4325
▁lemon	-11.4328
▁clamor	-11.4328
▁southward	-11.4328
▁menace	-11.4345
▁lava	-11.437
▁spice	-11.437
Much	-11.4387
▁Place	-11.4396
Six	-11.4439
▁recollect	-11.444
42:001:0	-11.4458
▁ELIZA	-11.4458
▁Puritan	-11.4458
▁Springfield	-11.4458
▁avenue	-11.4458
▁believing	-11.4458
▁dissolve	-11.4458
▁elegant	-11.4458
▁inflict	-11.4458
▁investigation	-11.4458
▁nowadays	-11.4458
▁prosperous	-11.4458
▁squeez	-11.4458
▁vehicle	-11.4458
▁harrow	-11.4458
▁slew	-11.4458
▁orchard	-11.4458
▁pleaded	-11.4458
▁Navy	-11.4459
Friend	-11.446
▁navy	-11.446
▁Middle	-11.4462
▁sovereignty	-11.4464
▁wight	-11.4465
▁mound	-11.4466
▁lent	-11.4468
stitution	-11.4475
▁artistic	-11.4478
▁emp	-11.4509
▁convince	-11.4563
▁continual	-11.4566
Think	-11.457
because	-11.4572
▁alternat	-11.4597
▁nothin	-11.4599
▁Benjamin	-11.46
▁Ferdinand	-11.46
▁indignant	-11.46
‐	-11.46
▁abolish	-11.46
▁ambassador	-11.46
▁batteries	-11.46
▁crooked	-11.46
▁discontent	-11.46
▁discourse	-11.46
▁distributed	-11.46
▁economy	-11.46
▁invariably	-11.46
▁opportunities	-11.46
▁skilful	-11.46
▁supposing	-11.46
▁trumpet	-11.46
▁unmistakable	-11.46
▁welfare	-11.46
▁Critic	-11.4601
▁dagger	-11.4601
▁streak	-11.4601
▁constable	-11.4601
▁succ	-11.4601
▁gallery	-11.4602
▁Riley	-11.4603
aternal	-11.4603
▁horseback	-11.4603
▁shaft	-11.4605
ECT	-11.4605
▁creak	-11.4606
▁raging	-11.4607
▁readiness	-11.4609
▁hillside	-11.4611
▁Marie	-11.4617
Slowly	-11.4618
▁tact	-11.4624
▁secur	-11.4645
▁acquire	-11.4708
▁confine	-11.4709
▁enthusiast	-11.4744
▁maxim	-11.4745
▁Commandant	-11.4745
▁Geoff	-11.4745
▁agitated	-11.4745
▁association	-11.4745
▁cathedral	-11.4745
▁constrain	-11.4745
▁counterfeit	-11.4745
▁cripple	-11.4745
▁exploit	-11.4745
▁insurrection	-11.4745
▁neutral	-11.4745
▁observing	-11.4745
▁radiant	-11.4745
▁remnant	-11.4745
▁veteran	-11.4745
▁virtuous	-11.4745
▁undertaking	-11.4745
▁vacant	-11.4745
▁lazy	-11.4745
▁gross	-11.4746
▁sunrise	-11.4746
▁Bessy	-11.4746
▁sphere	-11.4746
▁lurk	-11.4746
▁internal	-11.4746
▁barrier	-11.4747
▁courtyard	-11.4747
▁regain	-11.4747
▁plateau	-11.4747
▁dramatic	-11.4747
▁sobbed	-11.4747
▁superstition	-11.4748
▁mute	-11.4751
▁persistent	-11.4751
▁begging	-11.4751
▁alert	-11.4753
Except	-11.4763
Better	-11.4771
▁busi	-11.4777
▁mystic	-11.4839
dition	-11.4873
▁pinch	-11.488
prove	-11.4882
▁Carolina	-11.4892
▁Friesland	-11.4892
▁Rosamund	-11.4892
▁Youngster	-11.4892
▁appreciation	-11.4892
▁executed	-11.4892
▁expensive	-11.4892
▁grievous	-11.4892
▁incessant	-11.4892
▁luxury	-11.4892
▁merciful	-11.4892
▁mixture	-11.4892
▁narrative	-11.4892
▁plunder	-11.4892
▁pyramid	-11.4892
▁deputation	-11.4892
▁desolate	-11.4892
▁refusal	-11.4892
▁review	-11.4892
▁strode	-11.4893
▁whereupon	-11.4893
▁martyr	-11.4893
▁solitude	-11.4893
▁pencil	-11.4893
▁besiege	-11.4893
▁Work	-11.4893
▁Durham	-11.4894
▁civilized	-11.4895
▁confidential	-11.4895
▁flea	-11.4896
▁afore	-11.49
▁impressive	-11.4901
▁frock	-11.4902
▁parade	-11.4902
▁vanish	-11.4993
John	-11.5011
June	-11.5011
Aunt	-11.5014
▁Brabant	-11.5042
▁California	-11.5042
▁Kezia	-11.5042
▁Mexico	-11.5042
▁Yellow	-11.5042
▁approval	-11.5042
▁assassin	-11.5042
▁complicated	-11.5042
▁convenience	-11.5042
▁disadvantage	-11.5042
▁emergency	-11.5042
▁lecture	-11.5042
▁obscure	-11.5042
▁parallel	-11.5042
▁persecution	-11.5042
▁repetition	-11.5042
▁sublime	-11.5042
▁typical	-11.5042
▁vegetation	-11.5042
▁civilisation	-11.5042
▁defiance	-11.5042
▁displeas	-11.5042
▁glisten	-11.5042
▁terrace	-11.5042
▁patrol	-11.5042
▁stumbled	-11.5042
▁vigil	-11.5042
▁Knight	-11.5042
▁strait	-11.5042
▁jolly	-11.5042
▁bruise	-11.5042
▁insane	-11.5042
▁dominion	-11.5042
▁Indies	-11.5042
▁sceptic	-11.5043
▁Albert	-11.5044
▁swoon	-11.5044
espite	-11.5045
▁stirring	-11.5046
▁considerably	-11.5048
▁suck	-11.5049
▁cash	-11.5083
▁poke	-11.5094
▁quart	-11.517
Strange	-11.5176
▁exert	-11.5182
▁advent	-11.519
▁Pillbot	-11.5193
▁Salzburg	-11.5193
▁conjecture	-11.5193
▁decorated	-11.5193
▁destiny	-11.5193
▁inclination	-11.5193
▁resemblance	-11.5193
▁staircase	-11.5193
▁fathom	-11.5193
▁majesty	-11.5193
▁sketch	-11.5193
▁treason	-11.5193
▁petition	-11.5193
▁insurance	-11.5193
▁Thames	-11.5193
▁indication	-11.5193
▁slippers	-11.5193
▁Troy	-11.5194
▁idol	-11.5194
▁dragoon	-11.5194
▁whipped	-11.5195
▁ankle	-11.5197
ehind	-11.5197
▁submitted	-11.5198
▁icy	-11.5199
▁verily	-11.52
▁revelation	-11.5203
▁capitalist	-11.5206
▁speculation	-11.5217
▁torch	-11.522
▁bug	-11.5244
▁Netherland	-11.525
▁brim	-11.5254
Could	-11.5316
Captain	-11.5316
Early	-11.5317
}	-11.5347
▁Department	-11.5347
▁Gospel	-11.5347
▁Luxemburg	-11.5347
▁Oriental	-11.5347
▁Socialist	-11.5347
▁apparatus	-11.5347
▁applause	-11.5347
▁attentive	-11.5347
▁emphatic	-11.5347
▁refrain	-11.5347
▁amazing	-11.5347
▁breach	-11.5347
▁luncheon	-11.5347
▁warfare	-11.5347
▁prolonged	-11.5347
▁Fatty	-11.5347
▁Robin	-11.5347
▁slack	-11.5347
▁Jacob	-11.5347
▁broil	-11.5347
▁imposing	-11.5347
▁flicker	-11.5347
▁sprinkle	-11.5347
▁ardent	-11.5348
▁pleading	-11.5348
▁bidding	-11.5349
▁balloon	-11.5349
▁gorgeous	-11.535
▁Larry	-11.535
▁winning	-11.5351
▁HER	-11.5359
rubbing	-11.5398
▁publish	-11.5445
Really	-11.5481
▁intellect	-11.5503
▁Atlantic	-11.5503
▁Battalion	-11.5503
▁Beowulf	-11.5503
▁Kansas	-11.5503
▁Marzak	-11.5503
▁astonishing	-11.5503
▁compromise	-11.5503
▁encouraging	-11.5503
▁examining	-11.5503
▁extinguish	-11.5503
▁extravagant	-11.5503
▁eyebrows	-11.5503
▁phantom	-11.5503
▁phenomena	-11.5503
▁provincial	-11.5503
▁remembrance	-11.5503
▁secession	-11.5503
▁sergeant	-11.5503
▁serving	-11.5503
▁subordinate	-11.5503
▁unnatural	-11.5503
▁administer	-11.5503
▁cheese	-11.5503
▁rainbow	-11.5503
▁disciple	-11.5503
▁draft	-11.5503
▁kettle	-11.5503
▁vicious	-11.5503
▁nigger	-11.5503
▁finance	-11.5503
▁forlorn	-11.5504
▁carcass	-11.5504
▁lilies	-11.5504
▁noisy	-11.5505
▁David	-11.5505
▁sobbing	-11.5505
▁switch	-11.5506
▁habitual	-11.5507
▁kneel	-11.5513
IST	-11.5516
▁haze	-11.5521
▁chant	-11.5522
▁assistant	-11.5528
Seven	-11.5565
▁invite	-11.5626
Tao	-11.5636
▁Joseph	-11.566
▁Sintram	-11.5662
▁Swedish	-11.5662
▁advocate	-11.5662
▁corporation	-11.5662
▁eloquent	-11.5662
▁municipal	-11.5662
▁superintend	-11.5662
▁dignified	-11.5662
▁earliest	-11.5662
▁geese	-11.5662
▁pigeon	-11.5662
▁strove	-11.5662
▁chew	-11.5662
Exactly	-11.5663
▁glide	-11.5663
▁mould	-11.5663
▁veranda	-11.5664
▁weird	-11.5665
▁Justice	-11.5665
▁encouragement	-11.5666
▁bump	-11.5672
▁operate	-11.5721
▁adore	-11.5736
▁sect	-11.5796
▁feat	-11.582
▁negotiat	-11.5822
▁attributes	-11.5823
▁bamboo	-11.5823
▁betwixt	-11.5823
▁bucket	-11.5823
▁champion	-11.5823
▁consternation	-11.5823
▁disregard	-11.5823
▁energies	-11.5823
▁exclusive	-11.5823
▁outbreak	-11.5823
▁rhyme	-11.5823
▁symptom	-11.5823
▁tranquil	-11.5823
▁unanimous	-11.5823
▁Canada	-11.5823
▁blond	-11.5823
▁editor	-11.5823
▁enlarge	-11.5823
▁truck	-11.5823
▁sprite	-11.5823
▁dazed	-11.5823
▁inference	-11.5824
▁refined	-11.5824
▁Garth	-11.5824
▁Fisher	-11.5824
▁clinging	-11.5824
▁hostess	-11.5825
Gorman	-11.5825
▁slipping	-11.5825
▁Sandy	-11.5827
▁uncertainty	-11.5827
▁cheat	-11.5827
Unless	-11.5859
▁scowl	-11.5928
Teddy	-11.5957
▁Bertie	-11.5987
▁Karns	-11.5987
▁eagle	-11.5987
▁eloquence	-11.5987
▁explore	-11.5987
▁fascinating	-11.5987
▁gigantic	-11.5987
▁inconvenience	-11.5987
▁inhabited	-11.5987
▁inheritance	-11.5987
▁precipice	-11.5987
▁recruit	-11.5987
▁tyrant	-11.5987
▁bleeding	-11.5987
▁choking	-11.5987
▁hostility	-11.5987
▁meditation	-11.5987
▁bridle	-11.5987
▁phase	-11.5987
▁shabby	-11.5987
▁fisherman	-11.5987
▁biggest	-11.5987
▁starving	-11.5987
▁melody	-11.5987
▁varied	-11.5988
▁uproar	-11.5988
▁Arras	-11.5988
Victor	-11.5988
▁unrest	-11.5988
▁soaked	-11.5989
▁compact	-11.5994
▁revel	-11.6008
rrier	-11.6096
▁engag	-11.6105
Christ	-11.6123
Long	-11.6126
▁Portuguese	-11.6154
▁Wheeler	-11.6154
▁corsair	-11.6154
▁decorative	-11.6154
▁monument	-11.6154
▁prohibit	-11.6154
▁blazing	-11.6154
▁Beryl	-11.6154
▁apron	-11.6154
▁truce	-11.6154
▁intolerable	-11.6154
▁oyster	-11.6154
▁Frog	-11.6154
▁ounce	-11.6154
▁Raven	-11.6154
▁salary	-11.6154
▁ingenious	-11.6154
▁eldest	-11.6154
▁mirth	-11.6154
▁behaved	-11.6154
▁wistful	-11.6155
Bohemia	-11.6155
▁thump	-11.6159
Gentle	-11.6163
▁lard	-11.6169
OUR	-11.6225
▁abrupt	-11.6289
Major	-11.6292
Hilton	-11.6293
Benny	-11.6293
Leave	-11.6301
ddling	-11.6311
Fortunately	-11.6323
Unfortunately	-11.6323
▁Antanas	-11.6323
▁Jupiter	-11.6323
▁Society	-11.6323
▁blunder	-11.6323
▁censure	-11.6323
▁contributed	-11.6323
▁deprived	-11.6323
▁dripping	-11.6323
▁expenditure	-11.6323
▁explode	-11.6323
▁faculties	-11.6323
▁glimmer	-11.6323
▁hereditary	-11.6323
▁initiative	-11.6323
▁intercourse	-11.6323
▁schooner	-11.6323
▁tattered	-11.6323
▁vicinity	-11.6323
▁virgin	-11.6323
▁volcan	-11.6323
▁Queant	-11.6323
▁pilgrim	-11.6323
▁plague	-11.6323
▁shroud	-11.6323
í	-11.6323
▁Minister	-11.6323
▁freight	-11.6323
▁serene	-11.6324
▁fuel	-11.6324
▁Jarve	-11.6324
▁enlist	-11.6324
▁proverb	-11.6324
▁odour	-11.6324
▁lark	-11.6324
▁prostrate	-11.6324
▁imitate	-11.6324
▁shrink	-11.6325
OLD	-11.6326
▁Word	-11.6326
▁reef	-11.6326
▁liking	-11.6333
XXV	-11.6373
direct	-11.6465
from	-11.6465
cross	-11.6471
yadoya	-11.6496
▁Columbia	-11.6496
▁Gelderland	-11.6496
▁Mackenzie	-11.6496
▁Sinclair	-11.6496
▁arbitrary	-11.6496
▁deliberation	-11.6496
▁festival	-11.6496
▁landlord	-11.6496
▁reassure	-11.6496
▁terrific	-11.6496
▁uneasiness	-11.6496
▁conciliat	-11.6496
▁ominous	-11.6496
▁Saxon	-11.6496
▁ruffian	-11.6496
▁effectually	-11.6496
▁temperament	-11.6496
▁multipl	-11.6496
▁endurance	-11.6496
▁demonstrate	-11.6496
▁goblin	-11.6496
▁robbed	-11.6496
▁gaily	-11.6496
▁Martian	-11.6496
▁ripple	-11.6496
▁WAS	-11.6496
Follow	-11.6497
▁musing	-11.6497
▁motor	-11.6497
▁Town	-11.6497
▁foresee	-11.6498
▁gripped	-11.6498
▁cupboard	-11.6499
▁fuss	-11.6501
terior	-11.6537
▁seiz	-11.6625
▁scrub	-11.6633
▁plunge	-11.6634
Agamemnon	-11.664
James	-11.664
cloth	-11.6641
Q	-11.6646
script	-11.6661
▁Casanova	-11.6671
▁McTrigger	-11.6671
▁cultivation	-11.6671
▁delicacy	-11.6671
▁frenzy	-11.6671
▁obligation	-11.6671
▁philosophical	-11.6671
▁preliminary	-11.6671
▁premises	-11.6671
▁receipt	-11.6671
▁reconcile	-11.6671
▁reluctant	-11.6671
▁scramble	-11.6671
▁serpent	-11.6671
▁skirmish	-11.6671
▁burgher	-11.6671
▁knave	-11.6671
▁parlour	-11.6671
▁sausage	-11.6671
▁radical	-11.6671
▁slaveholder	-11.6671
▁stool	-11.6671
▁trading	-11.6671
▁Jasper	-11.6671
▁strive	-11.6671
Natural	-11.6672
▁undone	-11.6672
▁dragging	-11.6673
▁Tiger	-11.6673
▁urgent	-11.6673
Wherefore	-11.6674
▁acute	-11.6679
▁Hind	-11.669
Close	-11.675
▁excite	-11.6809
▁hesitate	-11.6813
Mozart	-11.6819
▁pension	-11.6846
▁automatic	-11.685
▁reappear	-11.685
▁Curtenty	-11.685
▁admission	-11.685
▁apprentice	-11.685
▁balcony	-11.685
▁blunt	-11.685
▁colonial	-11.685
▁explosion	-11.685
▁faculty	-11.685
▁industrious	-11.685
▁intrigue	-11.685
▁promising	-11.685
▁quantities	-11.685
▁suicide	-11.685
▁underneath	-11.685
▁defiant	-11.685
▁discretion	-11.685
▁juice	-11.685
▁research	-11.685
▁lavish	-11.685
▁scandal	-11.685
▁click	-11.685
▁huddle	-11.685
▁overcoat	-11.685
▁Christina	-11.685
▁Carlyle	-11.685
▁audible	-11.685
▁southwest	-11.685
▁vicar	-11.685
▁befell	-11.685
▁grunt	-11.685
▁aloft	-11.6851
▁hardships	-11.6851
▁stride	-11.6851
▁outfit	-11.6851
▁medical	-11.6852
▁birthday	-11.6852
Further	-11.6853
Chapter	-11.6853
▁dismal	-11.6854
burn	-11.6856
▁conven	-11.6859
Forgive	-11.686
▁Persia	-11.6981
▁accuse	-11.6995
▁lukewarm	-11.7032
Abricotina	-11.7032
Immediately	-11.7032
Melibœus	-11.7032
▁Commission	-11.7032
▁Kentucky	-11.7032
▁Tzŭ	-11.7032
▁admirably	-11.7032
▁circular	-11.7032
▁contribution	-11.7032
▁contrived	-11.7032
▁energetic	-11.7032
▁episode	-11.7032
▁extinct	-11.7032
▁grotesque	-11.7032
▁monopoly	-11.7032
▁monotonous	-11.7032
▁nostrils	-11.7032
▁pretext	-11.7032
▁shattered	-11.7032
▁societies	-11.7032
▁suspense	-11.7032
▁temperature	-11.7032
▁turkey	-11.7032
▁waistcoat	-11.7032
▁baggage	-11.7032
▁shrank	-11.7032
Pretty	-11.7032
▁expand	-11.7032
▁pioneer	-11.7032
▁Dodson	-11.7032
▁enlighten	-11.7032
▁drill	-11.7032
▁lungs	-11.7032
Meantime	-11.7032
▁undertook	-11.7032
▁grade	-11.7032
▁vault	-11.7032
▁cedar	-11.7033
▁beacon	-11.7033
▁contemptuous	-11.7033
▁implore	-11.7033
▁Ages	-11.7036
Help	-11.7174
▁devote	-11.718
▁confide	-11.7215
▁arriving	-11.7217
▁chronic	-11.7217
▁controversy	-11.7217
▁conversion	-11.7217
▁enchanted	-11.7217
▁eternity	-11.7217
▁executive	-11.7217
▁lavender	-11.7217
▁obedient	-11.7217
▁prodigious	-11.7217
▁shovel	-11.7217
▁unaware	-11.7217
▁uncanny	-11.7217
ü	-11.7217
▁Ulysses	-11.7217
▁dispatch	-11.7217
▁gravy	-11.7217
▁Sarah	-11.7217
▁penalty	-11.7217
▁beseech	-11.7217
▁predict	-11.7217
▁overflow	-11.7217
▁violin	-11.7217
▁genial	-11.7217
▁Shandy	-11.7217
▁butterfly	-11.7217
▁swimming	-11.7217
▁Scully	-11.7217
▁systematic	-11.7217
▁dissipat	-11.7217
▁grease	-11.7217
▁Shasta	-11.7217
▁nomination	-11.7217
▁medium	-11.7217
▁scald	-11.7217
▁fortified	-11.7219
Either	-11.7222
▁appoint	-11.734
Lincoln	-11.7375
Time	-11.7375
consider	-11.7375
▁program	-11.7403
Evidently	-11.7406
ography	-11.7406
▁Cambrai	-11.7406
▁Flood	-11.7406
▁Montana	-11.7406
▁Pennsylvania	-11.7406
▁Rhine	-11.7406
▁dazzling	-11.7406
▁equipment	-11.7406
▁indispensable	-11.7406
▁necessities	-11.7406
▁piercing	-11.7406
▁plentiful	-11.7406
▁skull	-11.7406
▁splendor	-11.7406
▁submission	-11.7406
▁swollen	-11.7406
▁wrinkled	-11.7406
▁enclosed	-11.7406
▁plaster	-11.7406
▁shimmer	-11.7406
▁sweetheart	-11.7406
▁surpass	-11.7406
▁ivory	-11.7406
▁raiment	-11.7406
▁snort	-11.7406
▁Satan	-11.7406
▁ravine	-11.7406
▁urging	-11.7406
▁rugged	-11.7406
▁amiable	-11.7406
▁cavern	-11.7406
▁varying	-11.7406
▁unkind	-11.7406
Things	-11.7409
Consider	-11.7419
▁Pitt	-11.7451
▁physic	-11.7525
Sydney	-11.7567
Woe	-11.7581
▁Fortune	-11.7598
▁Hansie	-11.7598
▁Outlaw	-11.7598
▁annihilat	-11.7598
▁banquet	-11.7598
▁clumsy	-11.7598
▁comprehension	-11.7598
▁conferred	-11.7598
▁definition	-11.7598
▁dialect	-11.7598
▁granite	-11.7598
▁irritation	-11.7598
▁paradise	-11.7598
▁propriety	-11.7598
▁pursuing	-11.7598
▁scruple	-11.7598
▁survivors	-11.7598
Mannheim	-11.7598
á	-11.7598
▁discomfort	-11.7598
Twenty	-11.7598
Wadman	-11.7598
ologist	-11.7598
▁spinning	-11.7598
▁unfold	-11.7598
▁Ghent	-11.7598
▁imperial	-11.7598
▁snuff	-11.7598
▁nourish	-11.7598
▁repeal	-11.7598
▁inquiring	-11.7598
▁endowed	-11.7598
▁converse	-11.7599
▁gust	-11.7621
▁Johnston	-11.763
Believe	-11.7646
Rather	-11.7737
▁gradual	-11.776
father	-11.7762
Hurry	-11.777
▁quest	-11.7789
▁thwart	-11.7794
Mademoiselle	-11.7794
▁1778	-11.7794
▁Assembly	-11.7794
▁Cyril	-11.7794
▁DEMEA	-11.7794
▁Fenella	-11.7794
▁Galatians	-11.7794
▁Viceroy	-11.7794
▁antagonist	-11.7794
▁boulder	-11.7794
▁circum	-11.7794
▁circus	-11.7794
▁cradle	-11.7794
▁efficient	-11.7794
▁equipped	-11.7794
▁fragrant	-11.7794
▁glacier	-11.7794
▁haggard	-11.7794
▁hypothesis	-11.7794
▁identical	-11.7794
▁industries	-11.7794
▁innocence	-11.7794
▁maintenance	-11.7794
▁muffled	-11.7794
▁premature	-11.7794
▁producing	-11.7794
▁shrubbery	-11.7794
▁squirrel	-11.7794
▁tyranny	-11.7794
▁whistling	-11.7794
▁eventually	-11.7794
▁humility	-11.7794
▁Summer	-11.7794
▁located	-11.7794
▁snarl	-11.7794
▁feud	-11.7794
▁dacoit	-11.7794
▁offense	-11.7794
▁Lawyer	-11.7794
▁decade	-11.7794
▁Andrew	-11.7795
▁glee	-11.7795
▁descent	-11.7795
▁grope	-11.7798
Papa	-11.794
▁pronounce	-11.7957
Perseus	-11.7963
▁convict	-11.7983
▁Doubledick	-11.7994
▁Hammond	-11.7994
▁Swallertail	-11.7994
▁ammunition	-11.7994
▁attributed	-11.7994
▁collapse	-11.7994
▁equivalent	-11.7994
▁extremity	-11.7994
▁hansom	-11.7994
▁humiliation	-11.7994
▁influential	-11.7994
▁journal	-11.7994
▁memorable	-11.7994
▁simultaneously	-11.7994
▁testimony	-11.7994
▁thieves	-11.7994
▁Calvinist	-11.7994
▁dispersed	-11.7994
▁resident	-11.7994
▁routine	-11.7994
▁sparrow	-11.7994
▁travers	-11.7994
▁turban	-11.7994
▁cowboy	-11.7994
▁hesitating	-11.7994
▁essay	-11.7994
▁fiction	-11.7994
▁knob	-11.7994
▁gulf	-11.7994
▁Senate	-11.7994
▁provoke	-11.7994
▁horde	-11.7994
▁heavier	-11.7994
▁eaves	-11.7994
▁berries	-11.7994
▁unfit	-11.7995
▁repulse	-11.7995
▁warrant	-11.7995
▁oven	-11.7995
▁slant	-11.7995
▁allusion	-11.7996
▁loop	-11.7998
▁violat	-11.8002
Always	-11.8042
Watch	-11.8106
▁slop	-11.8143
▁exterminat	-11.8198
▁Frémont	-11.8198
▁Polychrome	-11.8198
▁Scotch	-11.8198
▁accommodation	-11.8198
▁adjoining	-11.8198
▁diplomatic	-11.8198
▁elevation	-11.8198
▁feminine	-11.8198
▁foliage	-11.8198
▁inevitably	-11.8198
▁insignificant	-11.8198
▁invalid	-11.8198
▁knives	-11.8198
▁luggage	-11.8198
▁moustache	-11.8198
▁ordinance	-11.8198
▁prudence	-11.8198
▁secrecy	-11.8198
▁smith	-11.8198
▁treasury	-11.8198
▁Mika	-11.8198
▁deputies	-11.8198
▁merrily	-11.8198
▁chariot	-11.8198
▁Bruce	-11.8198
▁gilded	-11.8198
▁globe	-11.8198
▁tanned	-11.8198
▁cherry	-11.8198
▁Dusties	-11.8198
▁clang	-11.8198
Scarce	-11.8199
▁avenge	-11.8199
Capital	-11.8202
fraid	-11.8236
friend	-11.8375
Paul	-11.8376
▁remorse	-11.8406
▁wrench	-11.8406
42:004:0	-11.8406
kuruma	-11.8406
▁Egmont	-11.8406
▁Harriett	-11.8406
▁Pepperrell	-11.8406
▁Prophet	-11.8406
▁Quicksilver	-11.8406
▁Tressilian	-11.8406
▁affliction	-11.8406
▁ambitious	-11.8406
▁climax	-11.8406
▁congratulate	-11.8406
▁continuing	-11.8406
▁declaring	-11.8406
▁democratic	-11.8406
▁distribution	-11.8406
▁everlasting	-11.8406
▁extension	-11.8406
▁imaginary	-11.8406
▁mediæval	-11.8406
▁oblivio	-11.8406
▁occupant	-11.8406
▁proprietor	-11.8406
▁specific	-11.8406
▁supremacy	-11.8406
▁temporal	-11.8406
▁tunnel	-11.8406
▁visibly	-11.8406
▁plough	-11.8406
▁primary	-11.8406
▁signature	-11.8406
▁Taoist	-11.8406
▁unique	-11.8406
▁commend	-11.8406
▁speck	-11.8406
▁sentinel	-11.8407
▁snug	-11.8407
▁Teta	-11.8407
▁flaming	-11.8407
▁loaves	-11.8407
▁relish	-11.8407
▁gait	-11.8407
▁Tower	-11.8407
▁rational	-11.8408
▁sulk	-11.8409
▁Sept	-11.8409
Third	-11.8423
▁slit	-11.8435
▁bachelor	-11.8619
▁Battery	-11.8619
▁Fleece	-11.8619
▁RUNG	-11.8619
▁allegiance	-11.8619
▁coincidence	-11.8619
▁contrivance	-11.8619
▁disastrous	-11.8619
▁fabric	-11.8619
▁haughty	-11.8619
▁junction	-11.8619
▁miniature	-11.8619
▁preservation	-11.8619
▁treachery	-11.8619
▁twinkling	-11.8619
▁Mistress	-11.8619
▁Peyton	-11.8619
▁compartment	-11.8619
▁spruce	-11.8619
▁valiant	-11.8619
▁brazen	-11.8619
▁translated	-11.8619
▁Garden	-11.8619
▁nominated	-11.8619
▁Beaver	-11.8619
▁Buell	-11.8619
▁yoke	-11.8619
▁redeem	-11.8619
▁slander	-11.8619
▁postpone	-11.8619
▁nightmare	-11.862
▁forbade	-11.862
▁Marquis	-11.862
▁intrude	-11.862
Brother	-11.8626
▁connect	-11.8771
▁puzzle	-11.8799
▁reduce	-11.88
▁XII	-11.8813
▁Almighty	-11.8837
▁Avenue	-11.8837
▁Bernard	-11.8837
▁Crichton	-11.8837
▁PETERKIN	-11.8837
▁Shaykh	-11.8837
▁adherents	-11.8837
▁anticipation	-11.8837
▁bankrupt	-11.8837
▁calculation	-11.8837
▁catastrophe	-11.8837
▁crouching	-11.8837
▁daybreak	-11.8837
▁indescribabl	-11.8837
▁majestic	-11.8837
▁merciless	-11.8837
▁predecessor	-11.8837
▁resembling	-11.8837
▁tumbling	-11.8837
▁unbroken	-11.8837
▁Dohna	-11.8837
▁Stanley	-11.8837
▁gratify	-11.8837
▁misunderstand	-11.8837
Picture	-11.8837
▁Ralph	-11.8837
▁guile	-11.8837
Emerald	-11.8837
▁Venus	-11.8837
▁frail	-11.8837
▁coffin	-11.8837
▁screw	-11.8837
▁hatchet	-11.8837
Secret	-11.8837
▁harness	-11.8837
▁rebuke	-11.8837
▁concede	-11.8839
discreet	-11.884
▁nominal	-11.8844
jected	-11.8932
fection	-11.896
spiring	-11.897
Dorothy	-11.9028
Charlotte	-11.9028
▁Office	-11.9045
▁Blackfeet	-11.9059
▁Buddhist	-11.9059
▁College	-11.9059
▁Convention	-11.9059
▁Layonne	-11.9059
▁Massachusetts	-11.9059
▁Sprawley	-11.9059
▁Swift	-11.9059
▁apprehend	-11.9059
▁automobile	-11.9059
▁discouraged	-11.9059
▁ecstasy	-11.9059
▁explosive	-11.9059
▁fascination	-11.9059
▁flannel	-11.9059
▁harbor	-11.9059
▁mercury	-11.9059
▁reluctance	-11.9059
▁revenue	-11.9059
▁scoundrel	-11.9059
▁competent	-11.9059
▁sprung	-11.9059
▁trivial	-11.9059
▁turtle	-11.9059
Monsieur	-11.9059
▁sneak	-11.9059
▁tropic	-11.9059
▁unworthy	-11.9059
▁reliance	-11.9059
▁woven	-11.9059
▁conceit	-11.9059
▁befallen	-11.9059
▁mysteries	-11.9059
▁restoration	-11.9059
▁discord	-11.9059
▁void	-11.9059
▁Blue	-11.9059
▁brew	-11.906
▁promote	-11.906
Answer	-11.9061
▁Basha	-11.9066
Talk	-11.9068
▁scatter	-11.9228
France	-11.9255
▁Abraham	-11.9286
▁Barkley	-11.9286
▁Christendom	-11.9286
▁Christopher	-11.9286
▁Gilbert	-11.9286
▁Glaucon	-11.9286
▁Industrial	-11.9286
▁Meadows	-11.9286
▁Radisson	-11.9286
▁Scarecrow	-11.9286
▁Stadholder	-11.9286
▁abolition	-11.9286
▁adversary	-11.9286
▁bungalow	-11.9286
▁choosing	-11.9286
▁convincing	-11.9286
▁coyote	-11.9286
▁crouched	-11.9286
▁emerald	-11.9286
▁entrepreneur	-11.9286
▁environment	-11.9286
▁exaggeration	-11.9286
▁excellence	-11.9286
▁faltered	-11.9286
▁hymn	-11.9286
▁identity	-11.9286
▁primitive	-11.9286
▁supernatural	-11.9286
▁telescope	-11.9286
▁tremulous	-11.9286
▁Louisiana	-11.9286
cademy	-11.9286
▁Wilson	-11.9286
▁clump	-11.9286
▁entrusted	-11.9286
▁muttering	-11.9286
▁stunned	-11.9286
▁historian	-11.9286
▁venerable	-11.9286
▁Minster	-11.9286
▁grandeur	-11.9286
▁Dartie	-11.9286
▁Winter	-11.9286
▁pebble	-11.9286
▁isolated	-11.9286
▁blot	-11.9287
▁durst	-11.9287
▁sleigh	-11.9288
▁fumbl	-11.9361
Judg	-11.9394
▁decline	-11.9481
▁especial	-11.9484
Solomon	-11.9488
quo	-11.9489
Brig	-11.9505
▁acquiesce	-11.9519
enunciation	-11.9519
▁1781	-11.9519
▁1862	-11.9519
▁Fleming	-11.9519
▁Gautier	-11.9519
▁Gorgon	-11.9519
▁Heidelberg	-11.9519
▁Jefferson	-11.9519
▁Orleans	-11.9519
▁Overyssel	-11.9519
▁accuracy	-11.9519
▁accusation	-11.9519
▁agencies	-11.9519
▁analysis	-11.9519
▁benevolent	-11.9519
▁bolshevist	-11.9519
▁cabbage	-11.9519
▁calamity	-11.9519
▁circuit	-11.9519
▁concentration	-11.9519
▁diligent	-11.9519
▁discriminat	-11.9519
▁dynasty	-11.9519
▁ecclesiastic	-11.9519
▁eclipse	-11.9519
▁extravagance	-11.9519
▁fertilizer	-11.9519
▁hostilities	-11.9519
▁ingenuity	-11.9519
▁jurisdiction	-11.9519
▁magnitude	-11.9519
▁parliamentar	-11.9519
▁procedure	-11.9519
▁radiance	-11.9519
▁rubbish	-11.9519
▁splendour	-11.9519
▁thermometer	-11.9519
▁Henderson	-11.9519
▁beckoned	-11.9519
▁consumption	-11.9519
▁detached	-11.9519
▁elastic	-11.9519
▁fervent	-11.9519
▁suburb	-11.9519
▁contingent	-11.9519
▁Horner	-11.9519
▁handmaid	-11.9519
▁dominant	-11.9519
▁shelves	-11.9519
▁newcomer	-11.9519
▁interrogat	-11.9519
▁lucid	-11.9519
▁variation	-11.9519
▁sincerity	-11.9519
▁Small	-11.9519
▁tedious	-11.9519
Thirty	-11.952
Okay	-11.952
▁Water	-11.952
▁shingle	-11.9521
▁inspire	-11.9719
▁resume	-11.972
▁metaphor	-11.9757
Footnote	-11.9757
▁BERLING	-11.9757
▁Halifax	-11.9757
▁Riemann	-11.9757
▁Sawyer	-11.9757
▁Shakespeare	-11.9757
▁Siegfried	-11.9757
▁Stanislovas	-11.9757
▁accompaniment	-11.9757
▁appalling	-11.9757
▁assumption	-11.9757
▁barbarous	-11.9757
▁destination	-11.9757
▁fascinated	-11.9757
▁grammar	-11.9757
▁guidance	-11.9757
▁horribly	-11.9757
▁imprisoned	-11.9757
▁license	-11.9757
▁outburst	-11.9757
▁pavilion	-11.9757
▁perceiving	-11.9757
▁queried	-11.9757
▁unfamiliar	-11.9757
▁virtual	-11.9757
Public	-11.9757
▁Sweden	-11.9757
▁Tromp	-11.9757
▁grudge	-11.9757
▁interposed	-11.9757
▁thrift	-11.9757
▁dishonor	-11.9757
▁emptied	-11.9757
▁Civil	-11.9757
▁dismounted	-11.9757
▁malign	-11.9757
▁chalk	-11.9757
▁skimm	-11.9757
▁renown	-11.9757
▁plaintive	-11.9757
▁lurch	-11.9757
▁headache	-11.9758
Munich	-11.9758
▁console	-11.976
▁veritabl	-11.9765
▁deuce	-11.9774
▁clip	-11.9821
Ingua	-11.997
Possibly	-12.0001
▁Athabasca	-12.0001
▁Bromwick	-12.0001
▁Ernest	-12.0001
▁Matthew	-12.0001
▁Paradise	-12.0001
▁Thursday	-12.0001
▁activities	-12.0001
▁behaviour	-12.0001
▁celebration	-12.0001
▁colossal	-12.0001
▁describing	-12.0001
▁generosity	-12.0001
▁imminent	-12.0001
▁inadequate	-12.0001
▁inexplicable	-12.0001
▁legitimate	-12.0001
▁liberties	-12.0001
▁minimum	-12.0001
▁picnic	-12.0001
▁relentless	-12.0001
▁smothered	-12.0001
▁technical	-12.0001
▁temporarily	-12.0001
▁́pi	-12.0001
▁Daughter	-12.0001
▁Yezo	-12.0001
▁encircl	-12.0001
▁eyelids	-12.0001
▁squeak	-12.0001
▁Constance	-12.0001
▁Psalm	-12.0001
▁occurrence	-12.0001
▁Leyden	-12.0001
▁Ruyter	-12.0001
▁Israel	-12.0001
▁burial	-12.0001
▁Club	-12.0001
▁procured	-12.0001
▁squeal	-12.0001
▁animated	-12.0001
▁Silent	-12.0001
▁sandwich	-12.0001
▁strand	-12.0001
▁northwest	-12.0001
Farewell	-12.0001
▁grape	-12.0001
▁recess	-12.0004
▁Range	-12.0024
scribed	-12.0174
Raffles	-12.022
Apparently	-12.0251
{	-12.0251
▁1864	-12.0251
▁Advocate	-12.0251
▁Executive	-12.0251
▁Groningen	-12.0251
▁Ibrahim	-12.0251
▁Oxford	-12.0251
▁Railway	-12.0251
▁Taylor	-12.0251
▁University	-12.0251
▁Wizard	-12.0251
▁contemplation	-12.0251
▁diplomacy	-12.0251
▁escaping	-12.0251
▁evacuate	-12.0251
▁gaiety	-12.0251
▁imprisonment	-12.0251
▁monotony	-12.0251
▁strenuous	-12.0251
▁undisturbed	-12.0251
▁Palace	-12.0251
▁grocer	-12.0251
▁hypnoti	-12.0251
▁slippery	-12.0251
▁sturdy	-12.0251
▁bureau	-12.0251
▁retiring	-12.0251
▁proposing	-12.0251
▁rumour	-12.0251
▁fortifications	-12.0251
▁insolent	-12.0251
▁wholesale	-12.0251
▁decency	-12.0251
▁twain	-12.0251
▁fertile	-12.0251
▁forsooth	-12.0251
▁orchestra	-12.0251
▁translation	-12.0251
▁steak	-12.0251
▁slab	-12.0251
▁twinkle	-12.0251
▁pilot	-12.0251
▁grappl	-12.0251
Music	-12.0264
Must	-12.0336
▁twig	-12.0349
Marguerite	-12.0476
leasant	-12.0506
▁SERVI	-12.0507
▁Cassandra	-12.0507
▁Squirrel	-12.0507
▁colleague	-12.0507
▁vehement	-12.0507
Altogether	-12.0507
credulous	-12.0507
▁Centaur	-12.0507
▁Divorce	-12.0507
▁Jerusalem	-12.0507
▁Lottie	-12.0507
▁Service	-12.0507
▁Stutevill	-12.0507
▁Twardowski	-12.0507
▁antelope	-12.0507
▁barracks	-12.0507
▁bewilderment	-12.0507
▁chemical	-12.0507
▁conscientious	-12.0507
▁deplorable	-12.0507
▁disposal	-12.0507
▁elapsed	-12.0507
▁embark	-12.0507
▁juncture	-12.0507
▁magnet	-12.0507
▁malicious	-12.0507
▁persuasion	-12.0507
▁phenomenon	-12.0507
▁restaurant	-12.0507
▁stumbling	-12.0507
▁sulphur	-12.0507
▁uneasily	-12.0507
▁unequal	-12.0507
▁velocity	-12.0507
▁Ellison	-12.0507
▁futile	-12.0507
▁fraud	-12.0507
▁stockyards	-12.0507
▁vigour	-12.0507
▁devout	-12.0507
▁Ghost	-12.0507
▁impelled	-12.0507
▁recoil	-12.0507
▁severity	-12.0507
▁Billina	-12.0507
▁convoy	-12.0507
▁impending	-12.0507
Kullak	-12.0507
▁smug	-12.0507
▁clash	-12.0507
▁despot	-12.0507
itarian	-12.0507
▁terminate	-12.0509
▁Angel	-12.0511
▁hunch	-12.0511
Daddy	-12.0514
AGE	-12.0716
▁involve	-12.0733
▁precise	-12.0736
Claude	-12.0739
Marette	-12.0739
uperstition	-12.0765
incomprehensible	-12.077
▁1863	-12.077
▁Denmark	-12.077
▁Killigrew	-12.077
▁STATE	-12.077
▁Sabbath	-12.077
▁Scriptur	-12.077
▁Tamoszius	-12.077
▁Wednesday	-12.077
▁Wexford	-12.077
▁agricultural	-12.077
▁aristocracy	-12.077
▁diameter	-12.077
▁diligence	-12.077
▁eccentric	-12.077
▁eliminate	-12.077
▁grasshopper	-12.077
▁intimacy	-12.077
▁knapsack	-12.077
▁luxurious	-12.077
▁magazine	-12.077
▁mathematical	-12.077
▁miraculous	-12.077
▁observan	-12.077
▁ordinarily	-12.077
▁plunging	-12.077
▁remonstrance	-12.077
▁requisite	-12.077
▁rhythm	-12.077
▁sniff	-12.077
▁stimulate	-12.077
▁syllable	-12.077
▁sympathize	-12.077
▁unspeakable	-12.077
▁florins	-12.077
Supreme	-12.077
▁insolence	-12.077
▁muslin	-12.077
▁stifled	-12.077
prehensi	-12.077
▁Amanda	-12.077
▁sample	-12.077
▁Blake	-12.077
▁Wellmere	-12.077
▁parchment	-12.077
▁Sierra	-12.077
▁bulge	-12.077
▁chord	-12.077
▁pauper	-12.077
▁scorch	-12.0771
▁graz	-12.0772
Religio	-12.0776
waiting	-12.0982
TRA	-12.1021
▁apologetic	-12.104
=	-12.1604
à	-12.2201
ō	-12.2514
Æ	-12.2514
–	-12.2836
£	-12.3514
ï	-12.4242
ç	-12.5443
\	-12.5878
•	-12.6332
⁄	-12.6809
ö	-12.7309
ñ	-12.7835
œ	-12.839
ú	-12.839
É	-13.027
`	-13.0985
α	-13.0985
â	-13.1754
|	-13.3496
ε	-13.3496
&	-13.4465
»	-13.4496
ρ	-13.4496
τ	-13.4496
ä	-13.5607
ν	-13.5608
κ	-13.5608
ς	-13.8286
人	-13.8286
ó	-13.8286
ο	-13.9953
他	-13.9953
+	-13.9953
木	-13.9953
来	-13.9953
σ	-14.1953
我	-14.1953
«	-14.1953
了	-14.1953
ι	-14.1953
要	-14.4453
%	-14.4453
π	-14.4453
月	-14.4453
犭	-14.4453
Ô	-14.4453
η	-14.4453
ά	-14.7786
φ	-14.7786
ό	-14.7786
μ	-14.7786
„	-14.7786
口	-14.7786
爱	-14.7786
À	-15.2786
ã	-15.2786
έ	-15.2786
ί	-15.2786
γ	-15.2786
θ	-15.2786
λ	-15.2786
υ	-15.2786
ὐ	-15.2786
ὰ	-15.2786
ῖ	-15.2786
不	-15.2786
丢	-15.2786
手	-15.2786
日	-15.2786
東	-15.2786
松	-15.2786
狠	-15.2786
猛	-15.2786
猾	-15.2786
盐	-15.2786
艹	-15.2786
金	-15.2786
魚	-15.2786
鳥	-15.2786
ἐ	-15.2786
舟	-16.2774
ἀ	-16.2775
丁	-16.2776
δ	-16.2777
ū	-16.2778
Ñ	-16.2779
û	-16.278
■	-16.2781
Í	-16.2782
Œ	-16.2783
ŭ	-16.2784
ë	-16.2785
ˇ	-16.2786
Β	-16.2786
Ἀ	-16.2786
ῥ	-16.2786
上	-16.2786
你	-16.2786
早	-16.2786
È	-16.2786
~	-16.2786
¥	-16.2786
·	-16.2786
Á	-16.2786
Ê	-16.2786
Ü	-16.2786
ù	-16.2786
Ō	-16.2786
ή	-16.2786
ύ	-16.2786
ἰ	-16.2786
ὑ	-16.2786
ὲ	-16.2786
ῷ	-16.2786
€	-16.2786
♦	-16.2786
一	-16.2786
來	-16.2786
八	-16.2786
公	-16.2786
冫	-16.2786
凍	-16.2786
及	-16.2786
大	-16.2786
天	-16.2786
女	-16.2786
子	-16.2786
安	-16.2786
山	-16.2786
息	-16.2786
扌	-16.2786
扣	-16.2786
明	-16.2786
書	-16.2786
板	-16.2786
林	-16.2786
果	-16.2786
桌	-16.2786
桑	-16.2786
棟	-16.2786
椅	-16.2786
死	-16.2786
烟	-16.2786
爪	-16.2786
牛	-16.2786
狮	-16.2786
狼	-16.2786
猪	-16.2786
猫	-16.2786
疒	-16.2786
白	-16.2786
眼	-16.2786
示	-16.2786
禁	-16.2786
腰	-16.2786
臣	-16.2786
舌	-16.2786
船	-16.2786
芝	-16.2786
草	-16.2786
荷	-16.2786
萄	-16.2786
葡	-16.2786
蔔	-16.2786
蘿	-16.2786
裹	-16.2786
西	-16.2786
言	-16.2786
釦	-16.2786
铅	-16.2786
雁	-16.2786
鹽	-16.2786
黑	-16.2786
î	-16.2786
́	-16.2786
